053FEC18
72412743
1D025655
36502B5F
18C7DA12
B68C81D9
302710FE
274AF702
3627F5D9
D9FA3A07
5859163C
F72C1416
D23CF734
02ADC5B8
4D334355
71722B1D
343C2755
BDE7FF3C
C10DC7A3
F94658E8
282E55E7
197A66EF
3F07BD37
22A5E11F
BFE9E647
C63A25FF
635A3FB7
18183557
BE4B1758
333400CA
13FFD8F0
FDDD0719
D600420E
A7283BF5
3F67F4CA
63E2E3EA
16FCAC28
00004F59
FFFFFF75
FFFFFF11
000018B3
FFFFFDAF
FFFFFFA1
FFFFD9D6
131C2EFB
1E2A1126
CCE5E6EA
0519F6D0
1D1D2924
FC0C322C
0A06F6D8
D806FC11
F10005F3
031502DE
1A0506FF
F6EFF1FF
24170500
0819201C
00FCE7EB
1FDCDFE1
24281312
27311403
F7FBE2FF
FE030220
E0F4EC0F
CFF2F1E6
11E20609
2624271E
E0ECF319
FA2520F3
06FDD91B
EDECF2E6
F612F2DC
07EFF9F1
FF1229FD
0405EE0D
DFE112D9
F3FD15D5
0DF9F6EE
DFD9EB01
E0D000EA
0810E0FF
220D1B0F
1A2B3F2B
C2D1C5D3
BCC2DFBA
DACE070C
200A1C0A
03251126
EA170201
D0FEFBDD
F8FFE5FF
02EAFCD3
21FFEB0B
23112C1C
390D2F23
CAF0F817
EAD1B4E8
F31BE9CE
1C06E8F5
FF23121E
20153122
EEE92729
D8B8C5FC
DED507F9
04060A19
0031032A
2E17F308
FD143910
E1C5D3F7
DDF6DFA9
E613EDFE
0E2824F2
E2EE1BEA
D8EFD0FA
C6BB01DC
D2FEF4F6
23011506
00F923E9
2108F803
0822FC17
D5E0CEE7
E81911F6
2F393C0E
E72B2537
E30CFAF3
F0F7DEFC
1215DDD3
F003E512
18FC0625
09172312
F006EA10
E3F0F80F
D4DBF4E3
1008DED8
2338FF44
3C3B0A23
D701E823
D8EA151D
BCC4080C
D3D20FE0
0BF73517
18221532
F6EE2722
FF12F0EF
08FEE5EE
0503E2FD
0B091D08
1A06010D
102E1622
CAE4E2E8
C7E5D9E8
D9FFEDF6
F603030B
E7E82502
E3F3F9F5
E200F9EC
FC292AEF
02EAE1D3
FDDCEB07
FB0AED16
100A100B
F9D9F5F4
06F20F1A
E2F52CFB
222B0404
24EAF506
F3F5F918
D9ED19F0
1BF61328
00E60EF4
03E7F1DB
F3F2FA0F
FAE8160C
E8FF18FC
1424EE00
2508F1F3
F9F2CA16
EED0F126
D7E323EC
ED07FE1A
0B1DFED8
2E1318F5
F6DEEB00
D7152D22
0F0BFBFF
FD13EBEF
08050EF9
16FDD60D
1FC2220F
E1342912
111D0701
16EF13FA
F102E510
2DF3CCB1
5A6D281E
222D0237
CFD8EAF4
EBDCE1C1
01F4F31A
1D2305EF
252D1B26
E405072D
EDE5E8E2
FBF5F2E5
0715F6EB
08E6F411
5026241A
1F222C5A
F9D5EDF6
DCF2FCEB
1A1204F2
DEEEFE09
161BF8DC
0E3517FA
C9F701F5
DFD8F3EE
0012F1E6
F924330A
12EBF6EC
352E0A0B
F106152F
F511F0E0
06D0CDE5
FBE700FD
10141100
F6E4F206
CF0806DC
F9E6DBC0
110FD4ED
041E24F2
FA29DEF8
D210DFEA
F720DBC6
1AFCCFF7
060BDAD2
EF07FAF8
11E4D107
141AFED0
23FCDDDE
1C08E6F6
F3FDE918
E0FDFD2F
F3F722FC
12E5E1E6
03C4D925
F4DE0E16
D7D8050D
D6E113EB
1FF2E2EF
E2CE1C11
B40D2D33
EC054523
CE3E40D2
0B3F0AD5
230B11DC
DEFAD6C8
EA111FF7
FE0513FA
23080FDC
2715F0F8
F2FEC5FF
B7FEF728
EE0C13FF
F94929AB
3E5507CD
3B07E3D9
31D2DE05
DEEEFF22
18D7C407
DFD80115
15F619F8
09F3E3FA
2A3F421A
2E06E3F8
06E1EA12
13170FFB
0FECF40E
EE2F3202
160119FA
F6FE02F8
09F4F6DE
DD1CF3F5
EC190908
07191C02
4E21F3F1
D5E6155F
E21B08E7
F60FF208
2002FEED
EBE210DD
ED2EEF08
F40BF8F7
D9ECD1C5
E9EFF1EB
FA07F304
16EC16EE
08D9FD1C
0B380F18
2AE7E212
F2EDFC21
1C0A0FF7
F4DADDE0
ED0313E8
06CFDEE9
BEC3E3EF
FEEAD3E0
13F8F90A
07E5DFF0
4B352F0E
3501BD25
9F8B0221
1799A8AD
EFE20A05
11132E12
1503E716
D3D50620
CDD8EAE6
E107E0E8
F1E21012
F5292025
28251318
B13F313C
021404FC
E4CFE8C6
04240AD9
E6D1F0F8
F01EFEED
3D3C2305
EFE5C4B6
FAE5AFD6
F502D0DF
07FAECF5
0103EDFA
3C403314
3510C019
BADB1916
0EC2C5C0
F3FEEFF7
03233E0E
FCF2E51C
E1D0D3E2
00DEB1D2
E3D2ECE3
F900DAC3
D3D9360B
2B0BF2E8
09D7DE05
F602F520
E60F081B
CFE80DFC
1510D5CF
0401E919
F2082212
2B171CE1
1D0604F7
DDE4F5FC
37FDDEE6
ECC9F12E
1B133820
FD00E3EA
05D800F3
E6110B0A
DFF51210
FDE9F1FE
F9E3EB0A
F3C6F51C
EDF116F3
07F91B25
EEEDD3EF
DA264100
342400E2
E206063E
121E2924
0B1CF9DA
C0DA10EF
0A05FAF2
0EFDDCD9
ED0C1240
230715FB
1CFB0B0C
0507CFF9
0E0E35F9
0A0FD5F9
E3291E0E
4A350FCA
D5C3E135
FEE72629
DDD3E2FA
FA2B1A09
321DE7E1
F2EF0808
011D171B
0BEDD9D7
1CF61515
F21F1A1E
3FF9D3F6
D3D5144A
01343E27
F80BD5D7
F9160102
FAEBE805
CDDFF7E7
F61CFFF8
02E8E5D1
06DFF400
F91703EE
F71718E3
DDCF00FA
293B421A
4917C7E9
CDD11724
E70926E8
E9F4C9E2
EDE41115
0C10F9E7
EBDFF1F9
DFD2FBFC
C5E600DF
E5ED12FB
F8F615F7
E202EFE9
FCDED7E7
E6DCF2F1
1125291E
01F80025
02FDD8E4
ECD5EDFE
DD030E0A
0F0B17FE
1AF31F02
F4E81108
E9D9E5FF
D7F9F5FC
D3EEEAEA
FC0DF4D5
2D1E18F6
1A1C310E
090D3014
013AE612
41E919DC
0CE10AE4
EE120C0E
102A230D
04E5F3E7
0AEBE8DF
08F004DC
10FFF7FB
E6F91E09
1219091B
1126F90A
49D8310C
0D2EE711
3C1DF53E
11EB3612
D51EF82A
CCF0F202
B5FC3C07
0B2230EE
CCE6F7F7
F50E1712
F3F4FEEA
D7F4E605
110C2412
0B2A33F7
031A16F7
25FFD5D3
02C6D7F0
FEFF00F9
211919F5
20120204
161F08E5
17EBE9D6
08E8F20D
09170AFD
03F3E6D9
36B73023
14C8ED2A
D0C70D22
BEE908FF
F0EDF7DA
FC0CF302
18241D13
0916F61E
FCF805FD
070F0EE5
071102C6
1303EB08
E5F5F928
E4EA1C53
C4142DEB
272B05D9
27E8E9E2
E7F5F808
FABBB7ED
F9CAEC26
F7FD0518
0FD31208
EFF716FB
FBE2E4F8
0FF50B08
F4001B07
DD082123
11182B06
08240E0A
0B1CF40B
BBEDDC01
CF291CED
EF010EDE
03F0F9E1
20F2F300
E8F7180B
2408EF1A
284C11D4
3740BADB
390DD61B
0AE1EC31
E7D1CF06
E5C608F9
20FFD5EE
04EEE019
041706EC
0C031CFA
F4FDFB0B
1D2BFAE4
2C18C7D7
24D9B101
23CCEF2D
E4BA1446
CCDC1104
E0FA03D1
0C2ED8D7
F6010F0C
C6C1F318
808FD1D9
CCCBF1D5
FCE6020D
2C1430F5
E0E9282C
D5E5E505
CEC81ADD
D6ED1C04
222914FD
0F0A0D14
0D042008
F5FB16F8
E506C5AD
0616B4D0
2413E6F2
320A001F
240C1517
F515EEFC
F8B2B809
E4BCC1CE
F7E6DAF8
220FE31F
2511391F
0AEE0A00
DCC7D7EF
EABFC7E8
ECF00805
00F8140B
E7181A23
E9B5EA12
B09CE1EF
CCC9EC24
1CD93707
1F1631F8
1E42133F
2C241823
12D7EF3E
D420261B
27E6C4B0
D7F42832
0F121A1D
FBF5DF23
D8FA0500
1CE5DBCB
E0DEFD05
0EFA18FC
0523F90D
FC0A011F
C8172133
1A04D9C3
C0E11C30
3E171ACA
FBF4F024
FF23282F
3218FCEE
C5AFC504
E0D5E9DA
1015CBA2
F4EB0CFC
22FE120B
0F22F108
E4E8D521
002D1202
40F6E7D1
05072424
0A1B0D08
1CCDF813
BDDF010E
DBE3DFC2
E6CFD1EB
F1081900
1AF915F2
271EE40E
1FFD0E17
E0091929
0A08FEEB
FE0705EA
E318F80B
FB0FF3DF
0701181F
1607FDED
DAD3DB06
F2E82C28
11251BEF
FCE1D3F7
122F231C
FCE9FE11
04060B03
F8FCFC16
09EDEBEA
0CC7F130
12E5F324
FAD8EF18
EF3B0ED2
230BDF07
E9E20311
D91C3504
0F1AF9EA
03243C29
13040DF5
0E14E6FC
E1D7D918
E5F9132B
EEFF00DA
0220FBFE
4023E204
2DF5D8DF
EDE0F854
0D104CEA
F041D8CB
FFFFF3B1
00000A5A
0000078D
00000FF0
FFFFF8D1
0000045B
FFFFEFCF
0000220E
FFFFF17F
FFFFE8B4
000001C4
00000E03
00000F03
00002356
00001661
00000831
3E06F5F1
01E403EB
17EFFF0A
02F319F3
23080AE0
15021AF4
EC0F0DF0
FAECF0BB
0EF0E8EC
080CFAEC
150A1916
FB1820E8
FA0F0302
E20CF1EA
FE1311E5
0D1618E8
27F6DFED
2405F8F2
18E6EDE9
1CEBE7D4
34312524
E9290F11
F8FC2208
E6072B11
10F7E3DB
1E1600FE
001101E1
120F24F2
28DAFAFD
F0CAD3F5
F1D5B9E7
FA26F508
E0EEEDF5
FB051AF1
0808F906
EE0DF806
10E0D20A
13EEFAE6
E1E3D403
0C0D23F9
0E101208
F9F51000
F5EFF2FC
E91B35FD
FC12201B
F51D13FF
0D07FDF8
180218D8
131E0B14
030E0DEF
FB190D11
06F93212
4C5B280A
25EB3BF4
06EB1214
DBE0E80E
3627FBD6
061CF3E1
25EFCABC
F1EA01C2
09DCE604
18DDF4F3
20EC1106
E5F0FC24
00DCC9F1
D3E8EC0B
01FFF002
00FAE917
EEFE0BE2
090C09F1
DB15EF07
E3FDF7FD
121907F4
E9BEE804
0BE90CFC
2507070A
FF0B11F8
10142B12
E4DE2516
E8F31513
FAFF06FC
2617EEE2
CEE8EA1A
02E4BEF2
E8032831
F6131919
1B0AF00D
0D001819
FEFB02F5
EA0BF9E5
FEF5F8D4
23252201
08150D08
02F5DBE3
E1C8B8D6
2E01FBE0
210B1C17
0701E6F0
D1E3E911
0003240C
230BFAF0
F5EFCCF3
E4C5D2EA
2008150C
0C081500
E2DE00F4
F2FF1403
0B19210C
EF221F1D
E60D1908
F8E10224
E8FE3A15
E2F51B23
F5012E1B
160EF918
25F91727
F41F1430
0EDD0112
311D0D1F
0F23FB15
0F22E5CC
F1C9D3D5
06F8D4C7
0B2400F3
3817F324
2A12FBFD
FB0BEA1E
E7DFF115
EE09190C
F0F7FD0B
0D0613FF
19FC0B04
F1FFF25C
E7F4E51E
051302FA
1202F7E3
F5EEE5EC
26FC2231
16050411
142E09EA
F6FFF5F2
E6F0F5DA
0DFEE2F9
10FB0428
ED1F1225
D8010C06
080FFBF7
1C0A16FC
F40BF6EA
00FCF8D6
E6EF1803
0AE60A07
DD070B0E
1C24F7F8
F9270CEE
F4EFFB04
C4F1F82F
FBECFFFD
20FC03F3
0717EC0C
ED03F4F1
E608EEE0
2F0A0BFF
F90CF412
EC081A22
03F3FAF3
240BE7E9
FC00000E
1200F9E0
120FF7F5
0AE0F902
12010204
FD19FCF5
FFF1D8CF
FAFEE8EA
07FEF308
DEF3F1F4
0EFDE8DF
FF0A1B0B
15F81507
0A00F3FA
17EB27FA
1612000C
E8ECF0DD
EC012747
101F1A0C
07190DE2
2C0C0DE2
0C12F2E5
FCE10908
0AEE1515
150E1521
1C02FA07
3803E5E9
050C08EE
0CFF0210
170D09CE
020CF9C3
00F813DA
F1FF1DFD
FF150A0B
F710FB0B
FA032416
110811DA
0AFBE5FB
EA181DFF
F1091011
12141913
411C04D7
2EEEEC09
27E9ECFB
F6100CFF
E3ECFE0B
FA011001
14E7F216
D4D0F80D
18FF1101
02FA110B
FB10FBFE
FBFF020F
2FDDDAD6
D9F305F1
0004FEFE
D7FD2106
F9DDF8FD
0115241D
0E11271F
1F09F703
29E0EFDB
FC111510
F7172425
F9ED1C0A
01E2F9F2
EEFC0627
EDFB000B
291F0108
F0E10D22
E91AFAED
151CECE2
06E30809
EFFD0712
EB020F20
020CFD06
E3E3FE26
C5FD1F16
0B21C3D8
060EF9F4
EDEEE2E2
0CE516CF
ED010803
17F41B01
01F7FCF1
EBDEEB1F
14EFF9F8
0209FC0F
02FFF616
03F604E9
FE07ED0B
03FBF6E8
F5EFE50C
030CEEFC
F9EEF9FF
F2FCF3F9
F2E2F007
E807F70A
FDFBF5E4
E7E8FCF4
EBF0E9F9
E8F0F9FC
E2EFEF05
FA02F1F2
F7F1EBFE
E3F100F9
E405F4F9
E6F9F6FA
F4F4E6F9
F0FDF602
ECF9F001
070BEFE4
07EAF5F0
F708FBF1
05F0F411
00000305
0700FAF4
FF05EE07
F312F502
F30403F8
01F9FBEF
E6E1F7EC
EB05ECF1
E9ED0009
EBE2EA10
1206FDFB
E9090DEB
03F00707
08E1EBF4
E806F7FB
04F1FCF3
06F50508
090306EF
FBF002E9
00F4F201
F6FAFAFD
FEF800FF
0AF9FCF1
09EEF3F8
FB000603
E602F802
E9F8E603
EAF60209
EC0406E8
01E206ED
F2EAE4E5
F9FF0311
010708FF
00F5F2FB
EAEE0904
E107E5F5
10FCFC03
F60BF8F7
EC0F0A27
01231E0D
F904FA02
F5F7FF06
08030A42
F9F3EE1D
251004FA
09EAEDFD
05180A15
1F0A120E
F8FCEAFD
F8F3E022
1815E6F2
0618F006
1A0FE3F1
1222E5F5
E3261A3E
D914291E
1D032111
E41018F3
04E8E0FD
210EFC08
0A14FB03
E9FE20FD
F2F51523
FC070411
F70702FF
EC0903F6
DE00081E
FA081817
0BF62216
E2F1DCEC
07251DF9
E605EFFC
15FFEBFE
150B0B1C
06190FF2
F8F6FD06
17FBFB14
07EDF9E0
0208F2DA
0E01FBFA
FD01E9F4
1507D302
1812EBFD
151DDEF3
161807D0
F619F2FE
07FC09E8
1B0809EF
1D0806E6
F712FAEC
EBCCF2D5
120C30EF
F01510F8
010D0422
F5FAFB21
D310EF11
EBF2F728
F1020629
E9130E08
EC182B19
EFEF20ED
1CFF11F8
E904F016
0812E7FA
EC14FDE0
CFFA0D01
F5EE03F5
0EE9F305
1E131802
FC12191B
F4130F07
101B0CED
DFF011D1
E9C3F40B
01FDE6ED
1CFE161A
0007020E
100AF1FB
E5061C17
EB04FBE8
FB0F05FC
FB0D0F20
F1E410F9
05040109
2515F301
EF1B08FB
081115E4
F0E11529
07F9F012
0DF1D6F4
131CF4E6
E53929ED
F40A2A30
0FDA0BE9
2105F1F9
09131217
D6E214EE
18F7E5FB
F81BE1DF
DAF926FF
E7110F29
220A05F9
0AF41005
181E0519
FD0EFD00
F9E8D9E8
FDF1E805
0AF00F18
24F2DAF7
F3FA1704
EFE40A0F
FF041731
1322FBEE
F300F418
B8CD0F15
DE34E2D9
010A0CFA
1A02FF16
06F4E4FA
E3FB18FE
BBE21B0F
DBEDF816
FB2005FD
E0000A0A
D21AFDE9
111211F2
F6161307
071317FD
E4F7F205
0CFFFD05
EA120E0D
03FBF2FF
06F3EE03
FCE318EE
02F2F814
DCE3121D
1304082F
2614FD11
21FBF6F4
0D00E5F8
FF0BE8DD
FB081E0F
EF1E2EF6
071A0419
01CB0727
09E1F5E8
F4F8FBF1
2EF7F4F3
0C140D0D
D2EB1018
FF031AEF
F406E60B
0AFBF9DB
F9FE1802
EBFB0AFF
FCCBCE16
10ECE5DC
05F6F5E8
1E1C01FE
D7EF0CF5
07100511
1A0AEF03
15201AEE
D1D6F60D
E7F4F5DB
200FF90A
06F5E603
EEFEDAE5
010F04EF
1E062314
081A01FF
16F80DCF
231F0409
F116012D
03182002
1C10F5F9
1519F4FD
E00EFF2F
DFFD0AFF
030B07F6
250E1928
17EBEFED
E8DD032B
BF191542
F1F6E8EF
1CF5E0E4
341E0402
190C0DFE
FBDF0FF4
13DDFC19
3D090E0D
19FB12ED
EDF90CED
F5170F09
14FDF809
ED08F0F4
14D9FAC5
05EB00EE
FD080202
023108FC
EC110308
082402F5
F4ECEFF5
F9FB10F7
061801FE
190D0A0A
39230B0F
1BE0F206
3611FA14
F418F9FD
C7E10C1F
F9F1E3FE
EE020702
FDD413FD
EE03FF16
EE04000B
EB1B0813
E1FD1628
FFC9F5D1
E5EC11FC
EEF00BEB
DFF93035
FDF0E4E2
02041EF4
1A351027
01FF081A
0002E5E5
11242819
081E221B
0B0A1B07
0CE0EAE5
12010811
0DF90CF3
35161419
FEE50C1B
FB12F3FE
0828E9E5
0CE3F3DB
EBEA0821
F0F20103
1F06FF0B
E6EF15FB
E9D90916
0F0DF1DE
FFE1D20D
D9BCF7DF
07E8F2C8
EB1A3210
161A2609
11EF3D19
DBE0EB13
F9E60FFE
2CE60D13
0D1A0F21
EF09F10A
F9EFEFFF
FD1101F7
01020AF4
E70EF4EE
E506FEF0
EDF80B0D
00FEE9EF
EF0EFC07
EDFC0EF1
FAF60E06
F6FBF5EF
010BEF05
EF0DFAE8
F1EB0EFD
F1FAE9F7
0DFD06F6
EA08EC0C
F2EEF3EC
FB0601F4
060502ED
F80F0DFF
09F7EE08
FF0DF006
0AEDEF05
FEF6E9F8
E8F505FB
0303E90D
04ECF40F
F9F00F14
090C00F7
0709E4FA
FBECE800
F8F8FC0C
F5080F0E
F00C07FC
F6F3EAF0
0EF9F100
04F0FD03
FD03F80F
110C0B07
F10CFAFB
F4F30AFD
08E9F3EA
0DF2F8FE
F0020DF4
0DEAF6EB
F2F8EC08
EEEFF7EA
E90DFD0C
0007F2F8
F0F9FC04
11F3E8E4
F00204EE
05E8F2E6
0DF906FB
07FE0BF5
F10DF0EF
FFE5F1EC
00F204F9
03ED040A
0201000D
FC03EFF4
10EEF80A
0B0F0724
F9020C00
25F4F1FF
28280202
E2000B50
FF1E0902
EAD2F6E9
F0EE05F3
00F7E9FE
080B1705
EF1B010B
254E3CEF
0A150AE8
E701F4EE
0210F405
02F9FF1B
042B0E01
00010909
110BF900
0911F1E2
D5F7FAF8
EC0106F9
F2F103FF
F0EDDFFF
17030EEF
07FC11FE
F60B1DFC
0A0E2A2C
D7E203EB
0202FAF3
E0E1FAD6
16072F1D
220E0DEF
0AEDF3FC
2A0C13FB
EE031925
1617FFFF
1207EEEE
1E220608
F41A2427
F3F7F5DE
0DED07FF
0DE0FFF6
22113C37
F619EEFF
FEFAFF0E
F70AE100
0508D2F9
E1EFF014
EAEC110E
0CEB0EFC
0FF111F7
DF011E0A
08F0F8F7
15DDF7F4
E10311EA
0C201601
04EFFBF4
0E0AFAE1
FBF72928
2908F5E6
2301E90B
0F07F013
00FE0623
ED00EB0E
1206F80C
1111FE0C
F7E3EAEF
EDFD1B18
EBFB071E
F5F7F80F
25F3DAF3
E9120508
1400051C
0F10F708
F2FACDD1
F3F11911
FFEE24FF
0C0717FD
F3EB0CF5
EC0B171C
01FA121B
ECCDFE1E
3909D9EB
061AF305
020BF6FF
0E11F6ED
08150DF2
F2150511
11FF1D18
FA01F200
1110FFDA
01FB011A
F6FFF50F
15EE00FF
01FEE1C4
F1EAF61C
FF0B101B
FAFB1DF7
FA1204F2
EE09F730
FAEDF708
06EEF6FB
07171ED0
F4051222
17130D18
0A15F9E2
F7F017E7
12EAED17
EA010F16
11DA0E27
08110101
0AEEF501
FFFEF507
1D0EE9F8
FA1FFFF0
32260403
F502FC03
E41A0415
09CDE31B
1D0FFD14
0CF92717
F91AFBEB
25D8DDC3
000907E9
FDF0F4E6
E2F5161A
F2030E1E
FAFC0D0A
FBEDE7EC
F2EAF0F8
FB040CE7
F3F8F8EF
EAEFFDFA
03F0EDF8
0FEFFE06
05F3F5EF
F0FA0B06
0CF9FDED
03F7F2FE
E6E8EAFA
00F00DF6
F7F00A01
EBF3ECFD
E5FC09F7
0CFBE9EB
01E6F6F9
E7F90EFC
EB09F107
0608EB08
0907F5E6
EFE7EBEE
F5010604
F8F2F5F5
F4E4F9F2
02F9FFE4
F4E4FBF6
FCEDFCE6
F00703F4
0E08ECFB
03EAE4EC
09F1F4FA
FDEEE9F7
F307F0F5
F3E9F2F7
E7060906
0BEBE9FB
F6E6ED03
07FD0BFF
E9F50BF0
04E9EFEE
070408F8
E9FBFEF4
05E7FB05
EDF002EB
F0EAF002
ECFDF5E8
0205F4EB
F8F8F0F1
070301F5
FBF3F205
0BF4F808
ED0507E7
EEFAFFFE
0800ECFD
F60AF6E9
020306FF
E8FA0D08
FAE9EFF0
ECFBFEFC
FBEEEE08
0209EAE7
0BF80909
01051906
EF0D00ED
DCE0F9FC
10071B0D
0E0AF40F
FA001208
1C10FA1F
28060E00
FFEFF609
0CF60207
C5B6DB1A
0CFDFC22
0AF9E1F4
100CDDDD
FCFB0BDB
1FF717ED
0A2617F8
030C0F06
12F61601
111FD6EC
020AF4E5
FB051007
2D1E2502
08111112
1A07EB08
F907FC0A
FD03D4C0
061D2237
0E1A0CFF
0D020C23
E0D9D2CB
11000D0D
1409F5EE
EFF9DDDA
EDE40CE2
1A250700
F3F0ED0E
070011F6
EFFFE7C8
FD1EF310
F6F1DEF6
02F4F9FC
D6D2C7E6
01F6D7E0
0B1BF1EB
F41013F1
100605EE
1E1BF4E2
1419FCDB
FB1D0BDD
270805D9
2C1012F0
0D033C28
EE32070D
2B262115
070E0028
0529090D
F9FCE1E8
ACF2D22B
EAF3EA00
010F0BED
F305FE0E
EFF6FDEC
09ECFFFD
F506F5FD
06E5EDEB
FEF4E70B
E9090CEE
E9EDE9F1
F70A050E
F5FA00F8
EA07F70B
04E4F1F8
05ED0BFB
E60CF6E5
ECEFF7E7
F1E5E506
04F603EE
EFFAEEF9
0A0809F2
F6FDF112
02F40FEF
EC0009F0
FF0C0807
EE04F2E9
E90CF6FC
0003E703
F502EAEA
F0FBECF0
EB030703
F3FAEEEA
04F404EE
FB12F6FB
0210E607
E602FBFA
01FEEF09
ECEE04F7
0C050A07
F602F806
FEF4ECFE
071306F5
03E9F8F5
F3F4FCEB
F7FF09FD
FB03FA01
07EC07F1
F302FFFF
FCEAFFF1
EBF3F60F
E4E60EF7
0B050BEA
F1F0F5FB
F1EE0607
11E802F0
EAEB04F9
00F510EB
0AFAFFF4
FAF6F60D
E7EEEC04
F30EFFED
FFF3FFFF
03F806F6
F80806F9
0A0AFDE9
03EA0FEB
F7F9FD03
01F2F1E8
ECF82730
E60C1108
1C071201
3A160D11
D8E4F91E
E1EDFC05
EBF4FBD9
F3FCF3C2
FFEBF3F5
16180012
0F160810
4E321005
2112EE01
0FF4F9F1
0E060613
FF0E1745
D902EDFD
D8F90E1F
FCF3E7EF
061BEAFE
12232204
210B0C04
0609FE0F
F8DBFD07
06F603F0
FC0917D9
05FA18E5
0B0C2D16
D8EBE900
CED3EED5
E8F2ECD9
312A2E03
05FBEFFC
15111309
FC210218
0618F9FF
0BE2F5E7
F2F6E5D1
082008FA
201E1402
09F604F5
08F80B0F
13FB000A
0E0A2F44
181C0B02
E7F5F41E
F60D100D
0DF20709
061410FB
2C091314
23F81A16
14F2FFFB
FE0B1F23
F4F40C0B
0CE5F405
F5F6DFF0
FBF3FE07
CEEBF0D5
FBEFDEB3
302516E1
59190A08
0502E8FE
1CEEF21A
1A01FE07
1108F502
0A08200D
F2F30403
FE03EDED
ED0E2543
0B05081F
EFEDE834
19190F34
FB1208FE
07F00FFC
0A10FF17
E1EB1219
F40A09E7
F215F5E9
0BEE01FE
06E4ECDE
0B112FE6
031D260B
E2051AFE
FF060315
DCC3F304
E31208FB
EE0206F4
E105F7DB
0B19140B
09170604
EEF4F504
00FB00E5
1014270B
28190C14
0B040704
21131AFE
140AF4FC
05F4FAEF
F319EBF3
F1FB0EF5
18180B05
0208F8FF
EE1611EB
0BE9F708
FD01E9EF
E9EEEAF9
0F020703
F5EAED04
F5F0FFEA
FA09EAEE
00FBEFDB
05F9070D
D7E2DC12
EA0603FC
FEFBFBF3
0EED01EF
15F7070E
16FD261A
1B09FAE6
0A0807FD
073A3C2A
2800FC06
FD10FB19
0906F130
01F9CAFB
05FB1304
1C0211EE
05EA0508
F70D09EC
FC070CFF
F6F7EB06
FEF5EA10
F910F4EE
F0F8FC06
0CF20BFB
E9F50C0A
0D0F06FC
0C03F4F6
0FFDFD04
EEFFF5EF
FD06FCF7
EEFAEEF4
0704F1F0
F9F7FF08
F7050511
F5F6FAF3
11ED030A
0904ED06
12F210FE
EDEAEE09
10F9F1EB
F60EF511
0BF3F708
FCFB08EB
F10EFAFE
00F803F9
EEED0F02
FD12EC0B
FA11FF06
EFFE0A02
0CF4F7EF
EE01F304
FE0710F4
0DF60D00
050DFAFD
01F4F7EB
0C060CF8
07F3EA0E
ECED0011
01EDE90C
0800FFF9
EC0B0FFF
02FD020C
F4F3FFEE
F80C010B
09EEF1ED
ECEEF7F6
EDF0FFFC
F2FBFC00
0BF907F1
FE04ED0F
F0EDF2FC
0800010D
F9010DF2
F8F1FEED
00140907
FB1412FE
FAF506EE
FCECFDEE
120B04FE
E9F0F70B
F5EDF9F8
01FFF6F0
07F8F908
05E8F4FA
09030DEC
0D04E903
F416ECEF
FE0F14EC
0AF1F7F4
FF0014FD
FC0B0CFB
F508EC02
F20DF7ED
EAEBFAFC
F70DFFEF
F4F0F8FE
E60AEE08
1AF601FC
FCF818FF
0CF7E5F2
02F2FB12
0DFF12F5
0202EF03
16F5FA14
010EED0C
FC1506EF
FD05EC12
FCEEEEFE
00FAE8F7
1DFAFDE8
E7F0FDEB
F80CEBEB
F0FDEF09
0E02F313
E0FAE80E
040DEAE7
0CF7EEF1
F5F00AE8
F5F6F9F5
F4F101EF
F503EFE8
E6000A0F
F7E8EB0D
10F7F102
0CF60C02
F2F212EE
E907FEFD
F3FE0DFB
02F1EBF3
F201F50C
F0E5F2FC
0CF3EDF7
100EFE0F
FDFFFA0A
F3FBFE04
F8160FED
F4120D06
E8040F03
EA08FF07
0403F503
01F5FCEB
1614FD00
1A080B05
1602EE0A
F502F9DF
17E705E4
0E0C06EE
F1F013F6
E315FD02
27172AC2
072925F1
FA00121F
FA000519
E0F004FA
FBEEE7CF
E40511FE
FB120B1A
F6EC0DFA
F40012FE
15F7FFF3
FE0308F2
5E1A13EC
03FA0E0A
EA140F06
E4F4F810
E10A050E
AEE8F5E2
D2F9F5E1
F20A10DD
08160904
E8EB000B
08F5F811
000C09F7
362A3908
17143A17
D7F32029
FD11F909
EAE9FDF4
01F20BED
03150BFD
00041A19
F805110A
0B0E0318
F20C10F2
ECEAFC17
CEF908FE
03F0F20B
F8030401
091DF611
11030919
030A100B
F3E805F5
F9E9FEE7
FF212318
AEEC0CFB
C6E9F7F5
EF000EDC
0BEB16FB
27EAF50D
08F60B0F
D81A051B
FDEEE2AD
351A2910
2B260326
0F0F2438
C4C7151C
F5F00403
F810F70D
E4FCDCE0
F31611FB
F6161500
F50A0BFE
2706F0F8
EDF7F95A
E4EFF717
FBF1EC1F
18EF06F3
F600F500
FBEC0115
F006F81F
0A0E2E04
1DEDFCE9
FB14EE0F
06FEFE10
E5010923
0225380C
FB0A071A
170FFF05
F311EDF8
C6E3F2EC
07FF11F7
0E000311
0908DEFD
F1F72606
EDFE0DF2
E5EAFBF3
11020014
D6F8F6FF
FCFBEE07
0BF4F0F9
FC071C12
250D1AF8
F7F503F2
04100C0B
FCF40913
2F2718E8
0E1F0505
F200F302
E7F00600
1804E9EE
F90807DB
16FC13FF
121F1823
E4FF00DE
06FAFA05
0105F1EC
18F2FB0F
C2D8F007
0F0CFAF6
16F5F212
F7010316
CEE71224
EC000001
0E05F000
FBE408EB
241C372A
F1E60922
ECFAFF09
04171207
4912F7EE
1A210EF4
1217FB15
F3F3EB12
0F13F018
F105FBED
1B0BF3FD
170D12F9
F902071C
F20FF2F8
DEF70DEB
1B1300ED
0E1403FD
FA0A0F06
FB0E01DA
F60D21FF
08EAF0EB
0704F613
1805061B
0B000013
2D0B14E2
171CE80E
FD1CFFF3
0901F5EE
C6ED06F2
D2FDFD15
19EC0503
F81500EA
19190EDB
E00018DF
FB060510
08050808
22FAEDDB
E91406C5
D7F9EFD8
F90C271B
1405F109
0301F4F5
03F91E16
C1F9260E
140BF8EA
2418F9D1
F9FB0316
E1F61FFC
0DE6F617
FDE5E90B
01ED13FF
E7191A19
0C1FF309
F011FFFC
FD05E603
10F8FBE2
CE030A0F
EC0410FC
10ECF8FE
FF1CF3F0
F2012230
1D07F00F
1011EDFC
FBFCFCDE
1C2B2D07
0A0CFCD8
D5E7E9C3
A6F6070F
50F6D1E2
1106F3F4
2318ED0A
F3DA0217
1A18E7EF
18F4F716
08F8F7F5
10F0E612
050A16F9
03F1090C
06F809FB
FD06EDEB
0DF31606
EBEF15FA
EB00F7EF
DB0B07F3
05011825
100B0610
0CEE281E
F3E71405
2F0110F9
25FFE8EF
F7130205
F1090C22
0B12F318
D614080B
FE0816FB
3615E6E3
100A1408
0E050EEE
0C04160F
F3E9EF12
FDFA0012
17131603
E8FA181B
DCD70818
FFFA0B2A
12F6F209
0C0DF30C
03FB0D1F
FAECFE25
181B0702
04FA151B
CCDF110B
05FD1719
F0F8F2E3
180301FF
0A020503
11E3F5EF
1A141AFC
EDF2FF06
19FCE8E7
120D0510
F7FF09DF
F3E9FEF7
1A06EEF0
0B17F5FB
11DFF10F
FEE8E4EB
FF1CFBF1
F6101A03
1300E909
2F04FB1F
BF120E06
02F7F61C
F8200719
051FFD10
DCE4F8F4
F8ECEFFC
0CE8F8F3
E8E8E8F0
E9F0F1FD
E9EDF40B
FE060606
ECF80800
F7F6F5F5
FA0A05FA
EF0AEB0D
F2EAEE09
0CF4F1ED
E9F3FFEB
EDF0F7F3
E6ECF311
E9E6EC07
0A03E9EE
FE0900FE
EBE7FAF3
0DFFEBFF
F20E040F
010DE7F1
070B0208
08060D02
F004FFED
0DEF0B09
07ECF5FC
F6F5EFF6
F8E8F0F8
0700F30D
0C05F0E6
F90BF6F1
E6F6F8F4
01EFF106
EC02FDF9
E6E7F700
10EE08ED
0801FBF7
F6F9F1E6
08EBF2F4
0BFEF302
FE0200F0
07EE05F3
F6EC0705
FA0709F2
F801FA10
0B0E03FD
E8E8E509
0903EAEC
02FAFC00
09F4E701
F9F5F3EB
0D02F40B
F9020AF3
00FC0404
FD0F02F3
FEF0F2FB
06F9F704
E81304EF
EB11EDEA
03F000EC
F7EF0D04
E5F4FEF0
FF0BFF09
141E0710
0B121E13
16FB150E
0DFC0AEF
06E20343
00FA020C
0F07F91A
16FAF4F8
010D1302
01FAF701
FCFA1241
0D0EEEFB
F4121C15
1018FEE9
F30BEAED
FE09FAFC
EB28172B
E8F61901
33FBEE13
09FBEA03
FEDDE20D
2216E9ED
05F80C0D
F8F40B09
00011A2B
FB130305
001AF2E4
0BFE0E12
CC04F41C
0AE6F013
2F01F9D6
0CFCDCEF
FC0AFCEE
F41617E7
1819F00A
00ED08E8
0B152B31
F3F11A13
291FF0EA
0EFF04FA
F8130A08
FBF504EB
FDFAF4F9
130CF9FD
F1E3E4E8
20EDF8BA
092103EE
08F80925
F0FCFEE6
2714F9E0
FB0DF202
E3F0F00F
18EFE1E6
04FF19E4
06170A1E
16FAF90D
DAFE2841
E114184E
23260321
2F00F1FA
F10A09F7
EAF11715
F6F604F6
FEEDEE06
D718E90A
261CECF4
110CECF0
15260D16
E8ECD615
CBE3F4E9
06F2FB05
090910FF
FF0D0C14
04EFF1EC
FC1918DF
E50110ED
0A0ED9F2
0F0F0D22
15040721
F6F21103
EA2A3803
EB0CF71D
0213FEEC
0A171B1C
D4E61201
1EF4011C
5013FBEF
0A00110E
041A2714
D5F22D08
09EAFE23
1CE3F413
E7F1C8C2
BF26FBCE
E0101C0D
F5CD100C
2B230C06
0A04FD17
0CF602F2
01E305F9
2D12FDD2
E21727FC
0401100F
F7F21A19
27FBF5F2
2C08FFE9
FC0400EC
FCFD0A14
FEF3DB09
01021121
1A0BF418
09EC0614
BEDC0F1F
0C0C0601
1FF6F015
1011021A
80B4FF0D
DB12CDF2
F216F8F1
10E1F719
15F00E0E
A6EF09FD
C2DA0AFD
C8101009
3B19E9EB
131500FB
0623EF08
0713091A
03ED1116
00071D0E
18FFFC16
FEF70205
0E01FF58
F6FD0E26
08F3ED1F
F0E91630
FEE2F900
EE0FF410
19F6FD20
060A1625
F100FFED
F6E7F7CF
010602E3
04F10CF8
240EECFA
0E001813
E6111C1A
FF011903
E7F402EB
E5FA03F8
D0F4EDFB
081ED7F0
03FEDF0B
FA17FEE2
17F90D1A
1A01150F
FEF81A00
1B040B3E
FD032AFC
021B081B
DC03E7F5
06FDEEFC
2528FB07
100C0C15
E60FEBEF
10F6FD0A
FA1C0F04
12F70213
EF01EEE8
0DECF9EC
2CF01000
1AEDF5FE
0AF805EE
0AF50FD4
0D10FAF8
F304EEF5
09ECF6E3
11FE04F8
E0F1ED0E
08F509E2
19E6E9FC
F6FD0F13
2E110FF1
DE13151D
DBF3EB0B
250AFAE6
262F2850
17114835
C702F109
ED12E90E
F2EFF6EF
1A1BFCEA
2704FFF9
1A1A0EF4
06FBF909
0A2C1202
2105FFE2
0BE3C4AF
0F020DE3
06F814FE
EFF00CFD
04261203
F3050017
0705EEFF
13F0FBE0
09021711
161A02F4
131908F6
2F0FFDEC
25E7F2E9
1F190916
EDF012F8
FBEA1C19
FEF1F201
D6EA000A
E5F80A1F
0AFD1112
ECF00736
F0120BF9
FDF3FD15
1CD1E1D5
05F3FCFB
FAED2A1B
EBD9FFF6
FAFAF6EC
EE0F1A1F
1B0807FF
04FADDE6
10DE01DB
1229302F
0D101701
FBECFB13
11FAECF2
ECF30D28
06F3EDF9
0610EC16
EFDF0A0D
221400EF
0F29F5E9
FBDF061B
0CEFFD02
04F9EE04
E9F31109
E5F0F000
CBCAFEF9
07F6D6EA
24E5F001
DDD40CF1
03C80ECD
DC0E1918
240D2C2D
FC040A09
D7DB0310
F0091618
07ED0CEE
111A0419
08E9FAEE
D2FC05F5
C5E80AF1
E9EBF604
00FFADC9
EDEEC6C0
2B1EF1FE
12260509
15F0F2F7
FD0AFAED
D3EEDBD6
16D3D01B
010709F5
121105EE
061704E9
15051400
B5B6C4E7
D4CCFBFF
0B0F1702
E8FAFCF4
241F00FA
190012F1
160E02F4
DCF80B22
00E8FBEF
F70109F7
02F80FFE
F61DE6E4
F3E4F4E8
FD2C3003
071D1404
EDE7E0CF
ED0A2B0A
FA1C1707
E90D1501
F501ECF0
E2DF1517
D7070921
E0EA0801
231BDEE4
08040DF6
0C022824
DEEFD5E1
F9FDD8CC
161415EE
0D10D9DB
F720FF18
F10B3DFC
FDFF05FA
0E161308
1E02FC07
DFFD1CF7
08140BE6
EBFF0CFD
18EC15F9
2A4B1A1D
060ED6B1
E8F9D5D4
ACB9D4EE
18F1F026
F5DE161D
D7E3130E
EF0E090C
FB1D19E4
F6EAF6E9
F8F3EC11
0010F00A
0C0CF5EB
03FE0AF6
F5ECEFF6
F710FB0D
FA02FA0F
EDEAED0D
04EDF0F0
09F7E9F5
FCF8F6EE
F4EE09EC
11F51205
FD070FEA
EDFEFE0B
05F00908
0EF90106
13EC0303
EB05EA01
0F04EA13
EEF1FDEE
FA0D060F
F5030FFF
EFF1F8FA
EE02070F
E9090104
EEEFF008
F9010B11
FDF3F9EB
0EF8FD07
0F0A0F06
05FAFEF9
11000502
E802FAF7
12FCFAEE
0712F500
F6FE0D0B
E803EF0B
F0FA0403
F0F40108
010FF4EE
F802EC07
06050FEC
0402FFF8
FEEFF5F0
EEF10BED
F107F8FE
0CF60A06
EE05F4F5
08140208
EBE902F3
120D0904
05FCF60B
04031208
06F2EBED
0B00FEFB
0FFEF906
FA05F3EE
FBEF0DFF
F412FAEA
F0F501F0
0CEE0AF6
FFF5F5FC
EB1628F9
F90D21EF
03020904
E9EA0BEB
F2F4FC50
050A0A3A
FFED0007
0D140019
FC17020A
EFFFFB0B
E8F7FC25
F9E10B00
1008E9E8
1DF7D8E6
08FFE2F4
FB01ED0C
073C1E03
FD2325FB
FB1113DE
EE0021FC
C2E2E0FF
0C0EF6FE
F21608FC
F913F5F4
FF1B0107
EC0EF6F7
EEFD140F
0406F4FE
DD06130A
EEFCF7EF
0DEC1015
05010719
15190BDD
04EFE8E6
E909FB0B
06061409
25321BDD
E90E00E4
E60BF2EC
FB040605
0DF2E4DC
FCE8E3E8
FD12180E
E61BE602
EEFDF3DE
0E11FBD9
1D1A01C7
EF1E020F
DDF5DF00
FF1E19ED
F62221F8
08FD0F06
EAE324F4
EAF7332C
280807F2
2A12FBF2
0D11232C
F7010212
E4ECEC13
02FFE209
2120EEF4
F4081005
EBEDE6ED
FBF5F2E5
0BEE04ED
0F08F3EF
ECEBF411
FDF80210
F30301FF
F3FD04F4
08F707F6
F60102EC
EA07F6F6
F90005F7
EF08EF06
FC020EF0
0CEFFCF4
ECF20AFF
0FF3F1EA
F0EF0AF2
FE10EB12
1414FAFA
0FF313FD
0CFFFEF4
FB0907F3
F5F70BF9
F1EBF5EE
F9FAEBFF
02F3FF04
EC0B0B0B
05EA07F2
EAED11F1
020707F3
0B050EFE
01F5FE0B
040105F8
07E9F310
FD00F3FC
06F7F90F
E8EDFE0B
11F7FC0E
0DEDFEFC
F4F7F8E6
E8EBF9FB
F40E03F2
0A0CF402
F70109F3
FFF300FD
F7010E0A
E9EAF104
F9011212
F90702EC
0F05F9EA
FDEDF7EC
F7F410FC
F70AFCEE
010F13EB
FCF6F2FC
0B03110D
EC04EAF9
F9FBEEF8
F2F9EEF5
150A0C10
12E90AF5
F2F3FF04
F3FBFDF9
08110B06
F302F7F8
FF1E150C
1805F5FA
1E18EA04
1BFF0207
F2F80E5F
E3E80303
0BFCF1E3
06F2F6ED
F9EB00E4
11140600
F111FDFB
F5122602
22FEE6D3
01F900EF
11EFFC03
FFF4F40E
04301528
E7F5F40D
201BDAEF
FCFE030D
EAEFEEFE
07F702E9
0E0011FF
FFF6EDF6
FA04E711
13F70ED8
FBFE1321
1AFF0315
D5FFE806
D20302E6
E00C12E6
0CFA2423
1A050401
111303EA
072B0E1D
DDFC0C18
09100104
0D12FCDC
04261FFA
ED041F10
15EDD7F7
181612EA
F2F815F7
F2E5290C
0F06F703
EF11FEED
F8FDDA0C
220ED8E1
E00203E2
0812F505
2A101EF8
1CF4FCFF
B5DC0A19
160DEB33
18F3CFFC
03F8EDEC
0E0F3723
E60111FB
EF0D0DEC
D0F32C15
682701EA
29F8EDF4
1F02D511
010BFC09
E8FCE8F0
F90AF604
EEF9E9E6
FAF707EE
EE0C14F7
F4F1ED05
FF0EEA05
0EE7FBF5
EA06EEF7
ED08E402
0506F4FC
E6E40FF0
FC07020A
E5F7EE0A
E7F10507
E607F0F4
0E1009FD
07F7F0F7
0FF3F804
0AEC00EF
FC06050B
F4E80600
EDFA0BEE
F60EEBE7
FBF6FF03
01F6F80A
0A06FAEB
0F09F60C
03EF03FC
ECF1F503
09FC0DEF
FCE7FFF5
0CF0EB02
07F3F4E5
F50AE9F1
F30CF3F5
0D0C02E8
0700E9FD
050AEAE8
0BFD04F1
F8050209
FD0CEDEF
08EDE8F2
FBE40203
EEEC0DFA
FBEEF5F5
09FAFC0C
ECF7F0EF
0400F40A
F7F4F9FC
000702E9
0CE501FE
0301F809
0802EDFB
0EF905F6
FAEEED02
0EF705F0
FCF2F511
FDF3EFED
060DFC05
1101FC07
F1EBF6FA
F0EBFEF9
F4FE0100
10FF0617
F10213FC
E3FB0619
080B16FA
FCFEE807
E4F5EEF4
0E13F8DF
E8E21AE0
0FFFF105
030207DC
F9F4E018
1C0A07F2
061E02DF
0C09E302
F120FD06
18FEE62C
D6FE1F10
DAE32A2F
2F031000
DD0022E7
EDEC02E8
02FB05E8
D1F920F4
F9EDF214
FB01FA08
FD0A0F13
0629F2DF
F0E9F404
E1DFE811
0FDF0719
ED0F0DF6
FA060412
160FF6EC
F8FDFDF4
18EFF610
0B04D60D
07FF070C
0D0A2D03
1228F1F7
EC01E70A
0C00DCCB
ECE6D1EB
0105E6F9
0B150225
EA0CDCD0
1511E4F8
ED2DF9EE
F2FAFD15
18F50A06
270BF1EE
EF011B05
08E7000A
03F4EDF0
03F8FBF8
FDD9E11C
F9F411E2
EF0204EB
EC02FBF1
08E70524
18F51217
01060A16
F7F62F24
0BF21608
F307EE0F
D8F1F806
FA0B1A10
12F2110C
F8F5F1EB
DCEC0F69
04E7EC1A
04ECE01F
EF06EE0C
F8071516
D1F2F506
EE17F81C
22231927
13FF0BD5
FE06EDF2
09090AF5
0DE8FDF3
1325140C
FB0D2224
DDF5F1F1
FFF8010A
D8DD0FF7
07FBF502
0EF70BF5
031DE009
F60606EB
F6FD1000
F9DC0002
1E071C28
FFEF1112
EC091724
E9EA1606
1F101C22
FA200BFD
DEEADDEE
F61312F6
F8FB052B
0317E9F3
F709EBDF
EC0408F1
00010F10
F302F5DA
00F30AF1
091A0CEF
07111502
04EBF1EA
0504F3DD
01F6E9D8
F8FFE0FA
CAF709F5
03F41911
0C06F3FD
FE15E5F7
C9B6FB0C
E6F8000B
3602E7F6
160F1023
DF0D1329
E2C1E6ED
E80C2740
37F93B4B
1A23FF00
181E0E0D
02F1FE00
02F4E7EB
132604E8
0B081709
0E16F414
EEFF0700
161B161F
2BEF0621
FD0E071A
E502160D
21011EFF
EE12FEEB
E6F900F1
F1F70C28
FFE7F10F
FF0915F3
F20501F3
F112F1E4
EC27231F
0C071214
0A16F907
D40A291C
DAD9EA07
0217FC02
F20908F9
120B0AEB
13081C04
FF13F617
F1FC1F20
F8DBF1F8
FB07191E
12150212
D5012718
CBF209F8
01060D1A
E7EFF4FA
0C08F6D9
13FBFA03
24FF0017
090F0C02
FF001EF5
EAF3EEFE
16FE1518
E9E7F2DE
0AEEEDDC
ECE7F0E5
FDE7FEF1
0CFE09FC
F61EECF5
ECFA01E9
F1DF0418
FE210E09
E10921F6
F6F614E6
12DFF7F1
11090F0E
07FBE4F4
F2021419
20193EFA
1E19FEED
1804E113
F1F2F125
E2EADDEE
07F3071B
F913F514
0909FB00
1EF3F8FC
FD01EF05
18171AF9
F20F0504
F7E80608
E7D8F4E6
F9E5F2F6
2216E811
0BF2D2CF
1D141B06
1BFE0605
DADD04EA
F604181B
EFF2F613
F00AFA1B
FD02EB0B
DD9AAB2D
F8EDC8E5
05FB0AFE
2211EE07
292EF4E4
25F91208
F4060C1C
0211FCE1
D8CCF308
190D28DF
050301FD
FF08F7FA
DFF3D4F2
021A1315
132506F4
23121107
D6FD06FF
29FE0005
08191E1C
DFFCF7FB
9DBFEB1F
0E0BFC01
F91C061A
180F0FFB
120B281B
2B232105
0406180E
C1E2D8F4
0608EB1C
FB01F917
ECE4E035
27FFFE00
221F02F7
010709DE
0D170D02
FC1D04F9
222DF9DF
0E081404
DCF91212
0800F90C
05F7F2F5
1EEF14F3
0C344028
F9D019F5
D5F00909
D0D8F4E9
FEFA10FB
1B0C08E8
1BF7F3F0
06FE0FF0
04FA0418
FA1216F9
F8F7E6BF
FDF5E3C6
35120F09
180B0B08
09FB0710
1F15160C
05F1F616
16E8E7E7
EEF0F9FB
100F081C
EC0107F9
0627FF06
F40CF1FB
E1E5FAFF
37EB0824
01FAECEB
03151A17
08F8FFF3
EDF4F60D
F2FB2025
0AE5131D
05F30B24
F912FFEE
F8E4080F
F704F8F8
0B11211F
2F04FF03
FAFFC7CB
03F9F10E
E9FB231C
03F1FB08
1706DDE5
F1E31B12
E1F6351C
170DFDFE
08E3F7FF
05F02008
EC06FD09
E7E4D7EE
1616F2F3
F50015FB
F0F2F0FC
010D06FD
FD023338
F9F30716
18F0FFF5
0903F7ED
D6F30D1B
F6E3EA01
0407F2DC
1A07042B
07F9FEF1
D6C1E9E6
F8103E39
FA03201D
1F04F4D6
F3ED1B2D
01DE1CF5
E8F21AFC
28071410
21E71807
E3F7FB00
07FCF916
DFF3EC12
280D0BF0
0B1C10E8
CBF2ECDC
F6F101EA
0807E4EF
0D2711DD
150115E4
FC1D2423
0700F8FA
E40E030D
FF0C0101
17F80FF5
3A16F804
32E8E5EC
FF1505F0
1105F3FF
081F0B11
E81E0600
EDE60EEF
361805D1
1115EEEC
030A04FD
DD0208F0
0D1803FF
1DDBFBF0
FFF70DF4
D7FFEE06
03332619
DDE3EDE8
1BFFECEC
3420121D
FE0BF110
F4DDF3FA
241CF6F6
1214EBFC
FE121F00
0A07E7E3
0004E812
0E0F0428
0DEE11FA
001C0700
011AE513
F018FBDB
1BFDF5B9
0D2B010A
F9F301E8
F20127F0
160B12DF
4C30FEDF
2B1E2811
F0D5F8EC
DB0A0B0A
1A10CDDD
5214FEBC
2CEF00FD
BBDF081D
D1E2F210
E7E208FD
17F502F5
D614FBF5
F3EE00F0
09F60D0A
0EEFF706
0DEE02FF
10EEFA08
EDF0EEF1
03F8EDF6
F403FFEC
FEF2EAEF
08ED0AFB
EEF5090B
F6070003
EF0E04FE
F9080CFF
0BFDFEFA
FDF4FFF3
011103EF
F6EFEEF1
F109F2F4
0D090807
EE1202FD
F7EF0AF8
EBEFF1FB
FF0AFF06
01F8130B
FB0713F0
06EEF1F8
00F00C06
10F1FA05
EF0CFE0F
03EFFC05
F5F2F2F6
F5FA0CF1
EBF4090B
10EBFC06
F2F0ED02
FEF0FF06
12F5F8F7
F705F407
F304F103
0B000510
F4EE00FC
FEF30813
111302FF
F0F20400
0EFE0EF5
FCF0F6EF
0601ECEF
FAEBEAEF
09FA0305
F40401F9
06FCFCEA
F0080B06
F008F0F3
051108F2
EE0F0603
FDFEF3FF
F1F9FD0B
070008F4
06FC09F7
ECED0712
03F20604
030A06F4
0BEE06EA
050F0BEF
22F0E4E7
ED080410
01F6EF18
1E22189E
262EE4CA
030A00CF
F5EEFFC1
12F10CF7
101EEBE2
EBF71A05
171C02DD
E802F5F7
EC20F8F9
0B010DE4
07220306
4D15DEE4
410CF1E7
F7DDD7E6
D9FD02E1
DF0F2B06
EEF41BE8
00121D0C
EFE32023
12150FEC
FD010DFA
DBF7F0F2
F8FD1A1A
4BEBDFEF
EDF50BF4
D4EFEEDE
EC0B0CF8
02E50703
08F4190E
05221A04
FF09EF02
28F10CFB
0C152A05
FDF2E6F0
04FC12FB
EAE604EB
DCF0F801
00071000
002015FA
06FB2612
0626EEF7
102911E0
FA011408
08171712
DF0510F9
F5FEFCFD
EF0A0A29
0E331B04
281207F3
F1FDF332
D5F5EDEB
07ECFDE1
0F22070B
010302DB
0FFEDDD0
DECF0E17
01FE0616
FDEB1707
D203F41B
13130501
FF031AEE
EB09120D
EB16F1FD
1A070917
0A1206FC
FFF0FEE6
EEFBF80B
130020FC
F41FFDD6
E3F1F1E2
ECE21515
020003FB
F114E101
0622EAF4
0B09F0DA
18221B05
140F1F1B
F507F4F6
D2FA0FFD
CDD7EEF1
E60FF4DF
D4F304CA
F60DF3E2
13182103
ED00F710
F5FD0A13
F1E2FE19
180F03FF
1C152C01
EAE32E2B
DEEB130D
14150C0A
FA070BF8
1C17F6F4
F3FE0C25
181503F6
091E2D1E
FEFA0A0B
E9EDF903
FD03EBE1
00E4F3FB
09F10B0F
F5F2D6F6
F9F2EE01
2708E6FE
FF0CF5C5
0905E6EB
F9F6000F
F401F8FB
F3E91CCF
0503F8FD
ECDC1401
21F32C1A
03E0EAF0
ECF7F5F7
0D1C11FB
101BF1F6
02091138
B1EF1051
E3D7F0FC
F6212114
FC02F10A
120802EB
FDF2020F
0EF901E3
D20C0CF1
E9E203F9
10FD11DF
0C09FBDC
1C161406
1D070114
090B1409
FE13FFCC
F30104E1
DBA4D509
0304FBFE
0EFC0807
EC150D1D
FF23F3D5
01E7F6FF
1F1103E3
F2F50FF7
DC080202
020D0617
FB0AEBFD
20FFE901
F3152D09
0A0003E4
F5F4FF2C
0DE20111
E3FCE3F6
42210907
070B1408
F11F0D31
F0E2BFCD
190C11F9
000A1008
E8DC07FA
E9F8FAEA
0317E6F3
F3EF1228
E8FB1C1D
ECD7FBFB
0EFDF60A
00001318
D40DE8FC
F210D3DF
0DEB081F
12F10427
1111F205
EE0A14E8
00E703FD
0F10F224
FD07E1FF
DAFE080D
E6F4FC0C
0405FFE5
FFF802FE
0F04012B
140CE6CC
FCFB0B00
E3EAF525
F1F1F50D
0DE307FA
FFFF1D19
F4EF0903
1A110FF9
F01623E8
E8F3061B
03F9F808
F3EB05EE
061E1C27
F804F32E
EAF80244
E3000A5F
EE030410
F9FDEB15
1D030907
FEFB2A27
F91B0A0E
FF0F01F4
13FDE3E5
F202F1FA
011406E2
E1041E22
D20B1624
1613270B
C9F10D08
EEF20602
110FFBFC
0524E308
ED12F91A
E2F41715
0BEF0004
1BF9F70C
0BFD1E32
1CFD1354
2413FF27
21F9EF24
E3FCFCFA
E9EFFDE9
E3F6DDF8
1CFAEC0E
12FE061B
FAFCF40F
E613E1FA
2DF9F507
E40D08FC
FD01F3EE
2020F909
0917EFF4
E01416F2
0CEE06D0
F701F0D2
0401F622
E9E20506
EBE8FE02
F7F0FC03
F318FD06
19F60519
0AEFFA1D
4E090501
0729333D
F1FE2146
1E04F71A
1608065D
3AF90E3D
E201DDFC
EB000C02
EA1610E6
050E02D2
DA18FC10
1500FA02
060FFB04
11F80003
F3D6E520
E8E1E414
081BF623
14180A17
FDFBFB02
F1F6F028
1F12ED20
F6DCFFEB
0723F8EF
0A18FCE1
F5FDFBF3
151910F5
C5FAF61A
EEFF0016
F8DF081F
0D12FCFD
2502F6FB
2410FDFC
0C1106F7
EC0F162B
F6FBE513
1DF10E17
29FDFFFB
F70F0DF2
EC06FC29
F3040830
2B22E8F9
23EED4C2
1021FE0B
E50AF6F3
F7F10C00
10EB05EC
E2132129
E7FBFFFD
13FCF3E0
240BFAEC
0F061D0D
202305FC
EF0B0AFD
F80C0AF1
1AFCF8FF
0F09ECCC
1007F001
FD2C0828
17F7F0FC
3005F6E6
1503F903
F9F40013
FFFCEA09
E407EE00
1628120E
2CF3EE23
E4DCE411
E7021E30
F0E2E402
31FBE7EA
042B2112
000503FA
DBF22012
16FD150C
F206F3FD
FB0E0BEE
F90810EC
F9FC040E
020D1105
EEFF0109
EB10F80B
EA0E0206
0BF00AFF
FCFD0100
EEEBEAF2
00EDF7EF
EDF1F2F6
01F3EA06
F101E7ED
05060B03
03F3FB03
F609FAEA
EDFD0C0A
0DF1F3F4
0AF9F10A
EA05F5F4
EBEBFC08
F7E7F507
0F01FB05
F7EEEC00
EB12E90A
F2F0ECFE
00FF0701
FAFDEBF0
04EAEEF4
0007F605
EEEC09ED
FC0FED0A
01F002F7
FCEFF00B
EF0405E7
13FF03EA
F1EDF406
06F800F2
0401F708
0A060BF7
F905ECEB
05E7110F
EEF3E700
EA08F609
01F10307
0A0B1507
02F30DF8
ED0B0F0A
0B0CF6FD
F804FAFB
F3FBF50A
01ED17EB
F102EAFE
07FC0DF5
E6F309FB
EFE800F4
EEF10CED
EF12EAFA
00F3F8E9
F111F70B
000DFFED
F1EAF8ED
0706FA09
EAE9F703
FAFB03EA
12F4FAEF
0708F1FD
0BEF09FD
0012F3FD
140EF503
F3F40DF5
12F4F7EA
08F50E0E
05F6F201
1200ED01
FD11FBF8
0AF7F1FA
EF0AFCEE
FB070FF4
00EBFAE9
F8F5ECFB
EBF912F4
090FF506
F70BF40B
020C0AF7
0F04FA04
F3FD12F3
1306FCFE
0BF0020D
11FAFEFA
0FFF11F5
16FAFEF1
F8EBEFF1
070302EC
06F0060D
090F1001
0B02E912
08FDF6F2
05F50111
FDF3F2F6
1005F000
EFFF11F3
1108F2F9
F401F30F
1202FBFC
FD12F3FD
FF0F06F1
F804E907
FFEE11F1
0EF7F0F0
FCF0F002
02050310
080109F5
FEFBF6F0
F709F3F3
11FDEDEF
FDFAFFEA
EE05F610
F5F1ED03
F1F0F30B
EFFE15EC
00F30A14
0AF5ECFC
F20FF00E
F8F6FFEF
FCF1FC05
0F020218
04F80E17
F8070C24
090A1206
1AF2F3FA
04F5E100
EF060BFE
D3D70014
F9F9EAFA
ECFD00E9
FEE9E413
184A281D
FE180307
FE13060C
1D050002
1BF8ED1B
0E1D1604
0CF0FC04
0B1CFD08
CA04F0F7
F7F7EAFE
F21FEFF4
D3042409
1BEBFFEF
F016EC01
F5FD0F14
E81B240B
04F0E410
E2DDEA07
04E20B34
E4FC0C14
E306071D
F2F50003
E9F8F4FD
3622FCF9
0A0B030B
EBF8F508
2915201D
1C2306F2
FBF0E81F
F0F9F8F6
DDDCDBE2
17F6D8F8
1D17F616
EBECDDDF
190CF8DC
172E17F8
14CFE709
2B05F6F7
14FFF2EE
EDF71E02
F9F2FEF3
0CE8F6EC
05FAF809
F5D6F707
BFEC0AF6
EAE806F3
0D1901FE
30FB102F
E0F01B41
B5F30DFA
E7F0281F
0EF62300
D3EEF810
EC0501FF
050AF5FE
FC26F100
02FCF0F2
E3F11722
F5E7E7F7
0D1122CD
230FF5EE
14181812
1103FDF1
ED190A00
FAF3FDFD
1EFEE4E8
08F90E22
150DF616
F0051612
FE1F1C1C
F3F3F71C
F512E4EA
E7FC01E8
C4F1011E
D5FC1115
240F140E
F309000C
080725F5
E0EC08FE
EEEA070C
1CF9FFED
04F7ECCC
EE0CF9D7
DB08070C
1AF620FE
2E10F007
0603180B
E6F00EFF
F7E608F9
240F07D4
F73329F8
D4FDF907
F2F2010D
05E402EC
14EDEB0C
F6F5010B
F11B1B31
1105F815
FE120520
1BFDF9EF
08061F01
D2F6FC18
D8F10A16
0713FF0B
06040B21
87BA2819
0207EC0C
01250710
11FBF3EA
42202EFD
FB06F3FF
C7DE05C9
C8FEE4FA
4BEBE9EE
271B0406
2305EEF8
FF0B081D
F107F30B
F3F20201
F7090F04
E9E7EEEA
EBFCFAFD
03F2F9F6
07FE0B02
0403FF07
07000AF1
10E70DFF
0DF21212
07EDE8F7
02F9E907
FFE9E801
0EFBEFEA
E8FFF80E
F5F7ED07
EAF00CE6
EEFFFEF4
EA03030D
E8FA1802
F1FB02F4
F6F10307
0BEC02EB
FC03E5F5
070EEBEF
1001ECF0
03EF02F1
F00807F4
E5E7F404
F115F2EA
EE16FEF3
F3EAFBF4
EC02F4F9
0EE7EAFE
F60BFD09
F0F8F909
F408F0EA
F3FEF003
090CF802
02EA0DEF
0605EBE7
EFF611F0
0BE7F5F0
011AE703
EBEF03EE
F6F2F301
E9E903FD
FAFEFAFD
F7ECF5FC
00ED0EFF
10F4F802
FEF70EFF
F6F40713
0306EFFF
FDE804EF
00E9EEF9
01F7060B
E8FAFE12
EAECEFE6
F6EBFBF8
0201F0EB
0DF4F9F4
EEF10D01
1E0C090D
0C070B05
12EB050D
0F0A0313
08FE0E02
ED17FDF8
F5F6E9FB
E0D2F0E5
0FFB01F2
FFF013EC
FB0A0C07
204A16FD
F407EFFA
09080CF5
FB130EEF
F923FEFC
F5EEED06
1D0FFC25
19DDF70A
FCD1E5C4
FEF52223
0C0A0009
E6091506
D5F30B25
0AF611F1
F0FFEFF2
D70FE2C1
0EFA2A24
FFD5EC02
DCC6B9FA
F4B9BFBD
080D05E4
110E09FE
071519EB
FD0B000B
0114EBE6
F61F2705
FF06E2E6
F50FF0E4
F9030B02
15F5E911
E1E6EDD9
050CF6D3
1020402C
F4140D1B
09080DE4
0A1A1DF9
05FE0C26
FA080A17
EFEB0E05
0DF5F901
D6F32121
0D24320F
0DF7F709
FFD2E63A
D5E8DFF7
F820140B
DFF40720
04F7DABF
2905EFC8
26F02404
FBFA0E0C
0B06071A
F2D3F61C
06F5F908
EBFF07FC
080DEB07
FEFA010B
03FB090D
00FBF409
09F00616
02F7F205
F2EDF5FD
FF05FEFE
05000108
03EAEE03
090EFC00
00EB10E8
F1F1FD0B
F901F005
0311F206
FEFFEEED
06FCF60D
EAEFF2FD
F50502F1
09EAFCE8
FF09F5FF
080BEE0D
F912F7FD
08EFFD05
FDF6F4F4
07F5EF02
F9F1F6F5
FB0D03FD
EEF40F10
11FA0B0C
00FEED11
0106FFFB
FBFA01F6
0D0C0009
1217F808
ED000A07
0D0CF0FA
EFE902EF
EEF3EFF8
08F00CFC
F50C030A
EF0D12F4
F7F705F7
EDF1EE02
F9EE1113
0CFD05F3
09EFFE09
08FB0BEB
F0EC100A
F3F0F80D
0710F50A
13F506F6
10030209
0BF911FD
F00407F2
FCFAF701
F9EEF8F4
EC0AF8FB
0200FAFB
0407F208
0810EAF7
EAFB0C0D
2508F4F8
0001011D
2AE81008
190C0409
241115FB
1312FDD6
03F5FEF6
0606FD0A
1100FAEA
0AFE2013
170E131B
FE282315
DD151C0E
EA0CFAF9
EFF81E1C
FB061218
10E8D405
41F2EAEA
2A0A0A24
EA12E308
471CF005
ED09F5EA
DEDF0921
F9FBFAFE
05EBF5E2
1803F7F6
0C111320
F70A0615
0DEFFFE6
3008FB00
01FFF102
D90C0827
E0D112FA
E9F6F11C
102A2110
06FB1908
CBD1E102
1CFBFA00
0B10070D
F3F4190F
EFFF19FC
02042522
0B040D03
13003108
08EC0D06
10F80ED0
0BEDFA17
1502D3F2
4A300EFD
ED08F206
E6000C1B
040302E5
481FF406
01EDD500
04E3E2EE
E7FC1102
E6FFF9E3
3C0EE5EE
52340A24
D4F70C13
B8EE0A21
E8FBF114
24000806
00E8F308
EB1A21FD
10F807EC
D8000904
0107F824
0B00CEC3
05F8F5EB
041A15E9
F4F826F4
FDF81019
12000C01
0C190010
1002D6F0
0414EBF9
0327FE0D
1925FF16
031C010D
D9FDFFEA
F3E81DFF
20DD04FC
FAF100F4
0114FFF0
270102F2
2017F8FC
D1FB1617
0B1505FA
E3F1E521
F7FBEEFE
E7FEF5F5
F8E2E3E0
DAEFF10B
1EE3FD0F
FFFAF7E2
0E0A19E2
F1100DF9
E8ED1623
08FAF80A
08EA0FEF
E6F32121
13EE1C06
0204080E
F900F5F5
E505ED0B
EE1CF315
21150A0B
F2F50BE6
F61CE325
15160BEF
0419222E
071D1A19
2F04EFFF
1FFBFAF2
D9EBF114
EEEF2CEC
F81F18F2
F003FF00
FFFD0908
DBDBEDE0
E5F8EC0E
E0F0F5EB
FFEDF7E4
FC021CFB
06F72610
19F02804
0AF5F804
F4F90D0C
0FEDFC04
00EE04E9
EFF5F909
06F5F005
050A080F
050AEDFB
08EEF5F5
05FDFB12
FF04E908
EEF20006
FF080BFF
EA12ECF4
EC0FF9F1
EC00F7F7
07ED040B
FCFB0B0C
0500F7EC
ECFDFBFC
F6110BFD
FEEEF50E
0DF3F70E
F7000205
ECF10DF9
FFF60BFE
0A0DFCF6
F6F1E901
F0FBFEEE
EBFC010F
F601FBFB
01070A08
0203EFF1
F000EF0C
EE0B0601
0A0BF00A
F5021107
0315FA0E
FB00F00C
0DF9F0ED
12080AFC
0BF8FFFB
12ECF711
01FF01ED
F401F104
00EA0B05
EDFB040F
12020DF5
F3F30A10
0AFDF303
09020903
F9EE07F5
EDFE0F10
1100EC0B
03F6FFF6
1301F5FD
0BFBF30C
14FAF4FB
0BF30A13
0DF4EEFC
F8130AEF
0FF6F8F5
0AEBEC09
0105FBEB
F7F7EDEC
F7ECF7F7
06EF07FB
08E9E9ED
F0EA0BEE
09051203
010CFAEE
FFF8F5F5
12EC0904
F7FBF40A
F7F9F80D
FB05EA0D
EE11F800
EAEE0D00
F2EFF8EE
F900F108
04EAFCFA
0BF813F3
0712F50F
F8ECFD0C
01F0110B
F1F20DE8
13061006
F0FCED03
0EFF060A
11F800F4
EFFEF7EA
F3F6EB04
0FEBF8F2
F6F3FF08
FBEC0505
F70DF50E
03FF05EF
F5EBFB0C
FBF8EDFE
F7FEF7F7
0B040EF7
F7F5FC0A
00F0F3F9
EB02060D
FF02EB02
F40302F4
12E809F4
F9FCF910
F1000BEE
EC02F611
0DF7EAF3
F5EFFFF1
EAF812F2
13FBE90F
FD10FFEB
EC07F10B
FE08F904
0AF60009
FCEC0BFE
0E0E0E09
12F9F5EE
F6EBECF5
0707F413
06F50609
FD0CFAF9
060CF30F
F207F405
F304EF08
03F504F8
CF1A3527
F9FB0B08
03FAF008
011907FB
FFE3D735
09F2F422
F31209ED
D7E70FD7
12F61809
0FFDFC0B
28FDF6EF
1C12F60C
0B26DBE2
190CD3DF
0E21E7E6
F418F417
BE010D24
D6FC1025
0CEC24F0
E2E41F03
2103F1E2
261CF504
E9EC0205
12EA05E7
FAECFD0B
F817F7FA
162218FB
09F6FCF2
B9F4EF0E
E3F4F81D
0B0C13F8
FBF4E6FE
112616EE
F504E7D6
0AF5F3E7
18120305
E3EE1EFC
F705F402
0E1F0D16
E9190CE7
0401E4D5
0F02CDE0
F309E4FE
2609F711
1E08C6C5
1B23DAF6
E50614D9
07EDF80B
0F1AE8EC
13170BF9
EF0B1201
0304F8E7
19DFF4D2
14E723FC
02F9EFD0
EC1C00F3
C7D9F812
EAFCC4F6
0FF8F6FE
FCF7FE31
ED1804F1
CEFB1326
08FB26FF
15FE0D1A
03F3F4F9
1006FDED
07EEF8F4
FAE60DFE
0C2319FA
07171E04
EAE7150F
1008222A
030006ED
E5DEFA2A
0F0BF412
071D03ED
FDE80FFF
0101061E
F4F51F0E
01F81415
2EECF4E3
03FBECDC
E1F8F209
17EEF311
FC0F1A09
F2E3FA16
1CF6F515
FFF8EB04
1E0504D0
FBEDF000
F10D1F05
170307FB
1B161AE6
250F00D0
130CF5F5
28121011
F6EF0519
21F9F40C
071A17FF
F1F20EFF
19FEF7F2
2302E6D7
05F1F405
FD12241E
E403EF2B
FCF8252A
0BF718F5
F5F61D0B
FF132B1E
DEF31914
FFD92125
07FD1731
DF1C0027
E0DCF916
F3EFF919
1C070901
EA1B2524
FAEEF105
1219FC00
E9F50FDE
05240304
08102F0C
080CFFC1
0E051404
260DEF11
1B16CCEC
15FEDCF2
10E2FB01
08F502FE
211DFA12
03F2F413
150EF1F4
1D010D0E
08240C1B
0E14F312
08FDEBFB
0A181BF4
16ECF407
14EF08F6
FDF1E2F6
FE010513
FE110FEE
EA1CF6E7
FA0100F9
CD133C23
08062116
25EFF202
EAFE1411
1DEF01FD
09160F04
FC0E100B
F9E30508
130FF129
0B02F022
FE0DF5FF
DF01F9DC
F1071924
2501F324
3B09FA19
D8E4C1E6
08FD1319
DD0707F5
010AE3E9
F3F9E4F1
ED060B2F
0AE1FA14
1D110907
E1E4F5E0
FC0F0C19
FA19E9F6
EDF6E1DA
D9F6F4E0
E9EAF9E7
140514F9
080D0D08
0308130D
0EF5FDEE
1C030202
090C17EF
00FDF60B
5A1AE6D6
280F100F
F702EC10
0816F805
F5F5202D
F812FF21
2514CAFB
FD08E316
ED00FB0A
0C030824
1EEC190C
EEFC08F4
FCF21420
F6211700
FE050BE6
040E1E0F
110E020A
0F040804
F611FBF2
F30A1BC7
09EC13FF
2D2A20E8
F6F3EEE7
1E00DEE5
0AF3F001
E4ECF107
07EEF51D
EF1A0419
0000F1DF
F2FF13F3
120201F5
F4FD11F8
FF1321EE
F5180821
F00B0A13
F2F905FD
050FDFF6
0CFFFDFC
0B2209F5
FD0F07EE
F0D8CDE7
E8EBFBFC
DB0D1A03
F6081300
F9F9E7EB
1207EFFF
1003F715
00ECF5EF
FBEDDDCE
0808EDFB
09210BF1
150C09F8
0002ECE8
17051320
E6F2D518
09DEE0FB
0933F80F
E60AFE37
E60D0702
E80300FB
FE1B12F9
2AFD0C0D
FF051BEF
FEE80803
F9232BF3
040733F4
F9F71F04
D507DCF6
03FCDACF
160A0FB5
F7E7EFD7
E5152C02
E6FFEAF9
EFE6EDF7
13FD04FB
18270FFC
120104F2
18FF050E
09F6120D
14FD08FD
031C1BFE
E813EDF5
0BE10A19
16FDFBF3
EE05E700
130FFE0E
0D04F938
0321F5DC
09FDF4F2
04FC0AF7
F20EEFE2
EF22F4F8
1E170E04
0B002024
0EF407FD
1DF407E0
E1DB0713
E7ED05E4
DCFAF1E4
C8DA1118
F7192710
06F1020D
F9240BDD
06F21A1E
00F8172A
11CCF005
1ADDF3E9
0DFD07EF
F5F70BFB
FFFA1DF1
01050FFB
1105FEF3
10072901
FE15111F
1E0C03F1
F3FC02FD
08F40403
F313DBF2
16ECF5FB
0C112315
ECED1CF8
FB0407DE
0F1B0ABE
FC030116
D9FF0B1D
FDF5FF05
0F100AF5
EADF1617
2AE8F3EB
300711F3
2208EA17
F8E9D8E2
FF0B3426
1932214A
FCFBF5EA
31F2DFCE
D5050718
EA0C0DF5
21E718F3
04F30229
2F0C050A
09F100E7
FEF80706
E903FBF9
09FD24D3
0B0BFEE9
F6F710E1
11131101
18FC1309
0A1A04E6
01FFF0EB
D9FB0418
E8F60C0B
02F41D2A
10110A2C
F4F40AF9
40FBF0E9
3401E0E1
DF2A12E3
EC1A0F10
03170F0A
CCFF020B
0A0E0DF8
0B23F7E4
2D17F1E7
05151400
FDE5F613
02F1F9F2
2D18EFE1
231319E9
BC0E0E13
F3E01F22
E3DBF301
19120E1E
0C0B0708
E3EE0705
04DED1E1
2C14FCEC
00F8171D
E0F4FCFE
00E9FD1B
F0F5191C
F005060A
FAFE11EE
14061D1E
FA1C0826
0CE20023
F904F2EF
06020A1B
DCEE011A
EDEDEC03
15180706
FD0727FE
09F0F4FC
E8EEFFCD
0F082701
0917EAD5
3FE8E8E2
ECF3FAF1
C008FE0F
FEF0ED01
1211EA16
2017F704
E61B0513
26080315
010110F0
1013EEEB
F3FAFE1E
0E1A18F9
DD10040B
ED1AF007
06F709F2
0DF5030D
1313020A
E8E7F6F5
E3EE03F9
EAECEB2F
F9FAF30F
F9E41EFD
F0F0FC01
03EDE40B
08FAFAFC
1CF90FF0
17E60DF2
EDFFEFE3
1DFCF8F8
12ED1308
F7EE012C
0100060A
160C0521
05F7EEFC
EFEBE5D9
FE1712EF
2708F806
02F5061A
1504F602
01FDE719
13EE051E
00060805
FF0605DC
01E4F6ED
11F4F925
0B011C0B
F8FDF4F9
EDFE1004
F0FD111E
FEDDF9E9
DFF6EAFA
EEF1EE10
E2E20DF8
F1010509
E6FE1023
DFE4F6F7
03DDEF02
FE02FEFD
01DEFC06
1909FDEF
ED091706
FE13FDEE
FF2B2D0D
F6182827
FA062417
FD1AFFF1
F10A0D02
D307ECDC
010CE1ED
2307F90D
05F703F4
E60C0819
E70C14F1
EEFC0300
0CEDEDEB
E312095B
D7FFF33B
111F140F
14F1162C
F7FAF109
FE0BFC11
FE0B1405
12082112
0E11E3D1
F4F2FEE8
05EDE6F6
FA061509
D61E1B1B
CE061D21
FBEA0A14
1905F9F2
DFD6F60C
1C0BF0FA
191DEAF5
E20FF915
E909FBFC
E6F6F303
00F7FF00
16FEFF0E
DB13FC24
F5F71727
351100FE
3A210309
0D05FBD9
0806FCE7
F0FE0214
06FA0608
1707FEED
DFEBEFCE
F6F9EBCC
2F070F12
F804DE02
F2050103
F9110E0E
0BF62A16
03010BFE
07F0E6D9
091BED0A
FD142322
C1E6F706
051DFAFF
24060FF1
F6F40D0D
D8E4280B
1711281E
3D31210C
1D0D0211
EF0E1B2D
EAF42228
F2010814
59FD100D
1F1EF1DD
F51607F6
F9EA08E7
1008E800
0F21F2F5
FE190CED
FF08FAF1
F1181D25
0AE10DF0
05EFDEE5
0D151413
E0EC072D
FDFFFBF8
FE0A1908
1603FEFE
21FDE6DA
0BF8FD04
0812FC08
FA0D0402
FB040013
12E2D6DE
FAEFE0E7
21FE1015
080D0A0A
21022A0F
07DA0816
09F80105
DFD1F324
DF09EDE0
07E92918
F3170C0A
09F7051D
F8F6D3C0
BDDD0B01
F90B1703
3713FAFD
07E1E6F5
18FA01FE
01221E1B
2B0AF2E8
F1F4E7F5
E3011E1D
0307FF15
3B090C0F
F0F80101
14102A3D
03FAEDF3
FFE60319
FC0C061C
0207F005
080001F9
EFED062C
FFFC1B09
1FF7FF22
09F3F722
E3E5FC11
DCE21712
F726D5E0
11F4F90A
E1EF0FF8
F8E700E7
E30C15FE
1702F4FF
34200E04
E206FF11
FE03F9F2
08EBF309
2E27F119
F8FDF0EC
050105FE
EE060211
F4F005EA
F20408FC
F3FD070B
E80F06E9
EF01EE08
FEFCF107
02F200FD
F80CF50E
0EEE0E02
F9F3F7F4
F604F406
EAF80E08
EC0CED00
FDF80CEF
F50503F8
0A0BF6F5
07ECEBF6
F40BF2F7
F6F6F2F0
F7F61700
0705F4FC
090FE7EF
10F3F8F6
EE0110F2
FC0100F5
F3F7EBFE
F4FB09F1
FE0901E8
0308EDFE
F70BEDF5
EFEBFDEE
F009ECEE
FEF10EF9
E8E70CE9
FB0DEA05
F012E9FB
F20406F1
EA02FD02
F1EFEFF1
E8020BEB
F3FB02E9
FB0EF4EC
06F8050A
F113EF04
07080F11
060CF2FD
EF08F107
F70F05EA
F206F2EC
F4090300
FAEF1101
0CFDE812
F80F0A13
09FC06F6
00EAF3F3
EF0A05E6
F608E8EC
F813F603
FCF0060B
0D08E7F5
0803F0F5
02EAEEFA
01E80CFB
F2FF010B
E8F709EE
F708F40D
0DF7040F
0AEEF5FB
F30F1301
F1F10303
F9FEE9F2
FEF60BEB
F906EDFA
0B10F606
0AF7EC04
0FECEAEE
0BEEF702
02FEF0F0
F3F4F704
1300050B
04FC110B
100D0203
F6FB01F8
0AECF5F5
F30EFEF9
F40FFF06
FD0E07F4
F7F902F8
FCFCEFF4
02EA010E
0009FA02
09EAF306
0AF3E8F5
0D08F009
02FE0B09
09F90F0D
F8F80C0B
F5FCECF4
FEFC0EEF
EF0D0B0E
EEF5E7F1
02F6F609
01F9FEFC
E9E90402
090209FD
09F8FEF3
EE0EF6F5
F107FFED
0F0DEEF3
EB01F7F4
0DFDF6F6
E9F7E9F9
09EAE9FF
EE03ED0C
0502080D
05EAFDF0
F00302FF
000BF1F0
F610F903
F709E911
0100FF0F
09EB0909
EDED0EE9
01F5ECEA
0CF3020E
FDFCFB05
F5ECEF02
060CED04
F10A0AF0
12EFEFF7
F4F7F5FD
FCFA080B
EFEF0804
0DFEEA04
EAED0FFD
EBF5FDFC
EF09000E
0DEBEF05
FBFDF6EF
ECED0501
F2E90B0E
0CEFEE02
0D0305F6
F609E9EC
F405F6F5
F6F6F000
EF0907FA
0DF30EEA
0A06F808
0CEFF106
0DFB0DF9
0407E905
F6FD110A
12ECF709
EA1415FE
00040504
0CFEFFF0
FBEA0606
EE10F30C
040AF7EF
0CF90AF8
F210F806
0806EC10
E9FB020E
0F12F0FF
F5F2FBF9
E9F2FE0E
FC17F8EC
0000ED05
FDFEF0F2
E9ECF8FD
0AEF0C07
08F009FE
FEF50CE9
0EE80DFF
FCFD0A04
0CEB07F3
FFEE0D05
EEEAFE0F
F00C020B
FAF2EC03
FF0EFFFF
EEF0F5F8
02EEFDEC
F1100DFE
03F40509
E9F507EF
F80BF501
000C070D
FEF4EA07
FF10E8EA
F5090AF5
040EEEF7
F1F5F109
0EF80F0A
F90E0905
07F6F108
0A100BE9
E804F40B
F1EAEEED
EFF40000
E9080DF6
0C00F802
0FE804FD
05F7FAF2
02ECF208
FDEFEE0C
F5EC0EF0
F900FAEE
EA050EF6
01F6040B
150303EE
01FE09ED
E7FEFFF2
EFF4F2EA
F1EAEE12
F9FC1214
05050CF0
02100700
10F2050A
EBFA1005
02F3F90C
10FE0EEA
010AF7F3
02F6F7F8
14F70502
16FFFE0B
EB080511
F6030EFE
0F00FFEA
F1EDEC04
EAF9F30E
0AEAF0F3
FDF3F80F
05E9F7F7
02FE0E0D
FEF503E8
EFF0EB11
F803FA0F
F9FC0CFB
0FE708F5
0C0FE8E7
F9FAEF03
F7FCF702
F005FFF3
F70409F2
EF120104
F30402F4
FDFB0811
000E05F7
FEEC0BF3
F30C05F7
F605FDE8
3414F8F2
0A1E13E2
FA1103FB
C7FE1411
081016DE
161A0EE0
0F0D1105
EEF8FE1C
20211D17
F916FEC7
EC0306E9
E1DCFB21
FBFA04FC
0A041CF8
1D08FEF1
0201F2ED
3D000803
251EF4F6
180BF4FC
E1EC2012
DDE11308
E0F81215
EE11FBFE
F817021A
2A050B14
E3F9130B
030AFD22
E4D4DAEA
1C1A1311
2A0F2803
E8E12209
C0E206F9
F8FEFBF2
ED1407ED
04E80CE8
0F03F604
151A03E9
FE230417
EEEC14FC
E5E5D900
02E1EB06
DFFEFEF9
0B13FFF3
0308DCDC
F5E0E7F9
14001003
211BEFD7
0A17FCE8
F2F51022
ECF716FF
FE07FDDC
F6FC0300
F4DAEA14
17021207
190CF1FB
00110507
091102ED
04081809
E6FD0A16
C2F3E234
D6E8F011
F90B1D19
F8090FF4
F3F600F5
19F1F5FD
E0DFE312
FBF206EA
EEF61407
1CF2EDD6
1E08FED0
F109EDEF
060B0917
0E14EBF3
F4E6F71E
F2F1EFD7
01D8E912
E81015FD
0614140D
15EE041D
0D031512
F1BEC3DE
2A04D2C5
E6031609
04F5EC10
3D3217EF
051330F8
0E000C01
EC180DFE
08F7D0EF
110715F9
FEE90107
FB230A07
4205EFDB
3033F3FA
F20D071B
FCFFF804
F3EF0DF6
0012EDFC
E5FD0FF3
FF0018F6
FFEEEAF0
F1F8E0D5
DC02091A
0F1201FD
0A171C14
FA151B06
FAFF1617
F0010CE9
F4F51806
F51907EC
04F50823
0D100D09
1E29FCFD
181407F1
01060301
080417F5
30331D04
1102F018
12FC17D9
30030A1D
FCF2CDB6
0BFBD5DB
0EE3EDFC
0BE6F2EF
03F3211C
0CDCF9F6
0205FAF0
081D2200
E703E90C
EC00ECEE
EAE7F6F8
0A0F01F5
E4E809E6
E50503FE
080DF004
F5030007
F9F6E5EE
E7F2F808
E701F809
F2FBFE0B
F4F41300
FBEB0AF3
EBFCEEF3
E7F4EAF9
07F4F910
ECEEFBEE
FF10F106
ECEE0AF5
020A06F4
0112F2F5
FA0EEAFB
F7EFF1EC
F9FB0203
06EAECF7
10000306
ED070CF7
0100EFF7
0A060EED
F205F2ED
00E4E703
FD06F8F7
ED0AFC06
FB00F7F0
F7E60DEF
FCFDF1EF
EBEEF7F9
0D0A010E
0D02F7FE
0F0B0107
04F105EE
F2FFF3F5
060BE607
0B030D0D
E909FBF7
0900E9F0
FAF2FEFC
0E00F8F1
110DE709
EBF3FC05
F3F6F60B
FAF0ED07
EF04F40C
00080BF3
0EF0020D
06EC0510
FFE80DF0
190CE502
F3EFFE06
FF020AF2
F903F3FD
F2EFE6E4
F1FBF1EB
E6060903
FDFEED09
ED0306E6
F908EC03
F0FEF5EA
09E407FB
0EF3EC05
FE0DEFF7
E4FB08F9
F9EB0205
0BF10909
FC0AEBFB
01EFF6F2
F4F007FB
040CF2FB
F9EDFCF1
EA0B1213
F60AF9EE
03E9F5E7
E6F407FD
E8EFF00A
F7E805EA
07FEFBED
090DF20A
EC05EAFC
05E70305
0A07F4FB
08F0F2EC
F2FAEDF5
FEE507FC
E607F0EE
F60CF4F0
EBEAE8F5
F5FEFCE9
FEEDE9EC
0A0104F7
E504EBEE
04EC0101
F6E902FA
0EE5F7F3
F4EDFB05
01F7F4ED
E6FEFF0C
0CF5E7E9
EF07FD0B
FCFA00F8
EBE501F3
FBEEF90E
F5EFE4F6
F9F207EB
F3E4FE0D
F8FEF5F8
E7F5F5FE
EBF0F101
12F2040A
0FF8FA0D
13EE00FB
F8EBEF02
F503F5F1
FBFAFB09
FAE900E7
FB0C00FC
E80CFE04
FAFEE3EC
0A05FD09
1DF1F80E
04F4011D
FA06FA09
EDD1F1C6
0FEF09F2
F9F3EE14
1E0DF0FE
FEF6F501
0105092C
0BF0030A
E0C1C6FD
F812180F
10161413
F9F40D13
080A0E01
85A0DE0F
01EEDCE8
06F12005
17021019
4142F3FE
2009FD00
0E0DEF06
F920150E
E1E7E700
0C00150E
27040911
01FCFCE4
E906F929
190F06F3
F511040B
F1ECF2EF
F704201C
12F20CFD
EBFCF1E5
F6F70EDC
D5F9052E
F8DFF401
F2111FF9
010C01EE
F60713FB
0A26301B
F91008F9
EAF4F1C9
1FFE06F5
08F015ED
03E51C11
0F06FA16
3E150C0B
2CF4150D
03100315
0318E5F1
001BEEF8
D60CDB06
F4EE0D05
1CE6080A
F1DCEBEA
D602F70C
1E1BEC0A
F5EACCF0
0D1C2C32
E2EBF312
D6160C03
03011EFD
190B1207
E6EDEDE5
30F510FB
13E8CE03
383138DB
0B0206DD
ED252D2F
E2F5EBEE
01050A0E
090900EE
25E7F2F1
06FCDAE8
EEDD1D34
F9DF1649
12E22538
14DDFC0C
2EF2FCE5
080904E2
FE0D00F5
F1F9110E
23F3EF0A
001C1A20
F8FEE805
5200B103
020BFD0A
3805F00B
FCF8F012
1708F601
2B13E5EE
531910F6
E5FFE622
EF0B0C22
F2F9051A
0CF20C3F
10FEF8F8
1518FFF2
D0F0D42B
26120F2E
F9FDEDFD
000F07FA
18071235
0C0B1508
0312FA0A
0F0BC9BE
FAEB0721
F6E4242A
E7CA412B
23C4D10E
25F10308
071CEF07
F2FBF4FB
3308D9FB
293CF4E5
DCED32F3
DC0D1ED5
C7210EB0
0CFE2120
2902DFEC
2016FAD8
2303DEC8
C7F5E4E6
0213F804
1D29F703
E42312F1
0BFDF1F3
0507F70A
F700F0FC
09EB040B
F7FF0703
0514FDEC
0C010E10
11050CEA
F70CECFB
FCFCEB07
EA0A0CF2
ECF8F9FF
0CF707F2
F608100F
F8ED06EE
F10C0BFB
15F3F7EC
F212F1F0
F4110F04
00F7EFF3
0B0CEFFF
03020A02
EEFBF709
08F2FEFA
F811EEF7
FFF9F7FA
FAF2EEFC
EF01F007
F80B08F7
1307EC13
FB10EB05
1112F105
F5FC0DFE
F1FD0AED
F80A0209
0800F5F3
03080FEB
FAEEF6F4
FBEAFCFD
0C0310ED
EDF10B06
05080A06
07ECFAFF
F80C10F2
04EEFE02
08F8FAF7
ECF7ED00
FFF00009
0DEBEFF4
02EBEE09
FFF807F6
FF11010E
F3FCFDFC
0F0B10F8
1511F003
040C1103
05ED040C
00F00A05
FAF902F5
0507FB14
0FF9FD09
0D01F100
00070DFC
EF06FDF4
FFE100F0
F4F00504
16FBF5E7
1704FB17
F50A0BC4
070D1DED
ECFE05E3
0C0918F2
FC0CFB05
03F0F5F8
02ECE4D9
1C0C20F4
FD060C02
1313181F
050A1B1A
EE0910F2
2705FDDB
10030102
FA06EEEC
EFE0EBF8
CFFE1A16
C2ED1104
F5F2F80B
1CFB00E4
252310ED
EE1A0CED
ECE61103
FA041802
1C0920E8
2203E6E2
E7080417
050303F7
EA09FDF7
20FAFFF8
0FF00FF0
D91A19F3
1423ECE5
0C1EF5DD
F0EDF1F5
DFF627F3
F3FAF404
F3F10003
FCEE0FF6
F5131302
EE0D2314
02F12416
00F8F81F
0AFEE002
EB1E2421
C0E9F20D
D2EDFBF4
02FDF4E9
030E0505
02EEF717
00E2F9F3
FF0B08E4
3C1C12FF
240E0FEE
ECEEF1D1
EF02120A
F8F4FCF3
FE080803
0B0AFD1C
E2EE17F7
F4E90102
09E21217
E3EA0907
08E8FCEB
00EBFBF3
0DFFF4EB
18061606
14E7050A
EAEAF6F9
E705E608
E808E0EE
FFEC04F4
E5E8F0F0
F6E5FDF0
EBE601E9
080809EF
01F7FDF0
E0E6EF0A
13020AFE
050200EE
F1E8FD07
E8EEFB05
FD07F7EB
F505E7E7
ECED02F1
F7FBF9FC
F001F7E5
01F5FEF9
E60F101F
09F9FCE7
EB09DF03
F0F9ECEA
EE0F0C08
FF04F400
E7E4DEFA
FC0EF3F9
00FB170A
FBFFF105
E801FBEF
FDEDF112
0200E706
FAF1E8F2
F1F6E6EC
00FAEE02
EE0EE9FA
F2EDDAFF
0AEBFA06
0408E8EF
040DF4F0
FFE8F1EE
E6EBF0F0
0AF4E101
13E708EE
05FDFB14
1200FAFD
F0F7060D
E809ECE5
EC11EE04
FF060AF9
09FDEDF4
0E0910F3
F5EAFAE9
E8F70BED
EA0606F1
F2040402
F400FFE5
E8EDF0FF
10FBFFF9
06041418
FF06F5E9
0CEDEFE7
FE0FFF0C
F0FA09FA
F9EBF000
010DED03
FB05FFEE
01F0E5FB
F9EEECEF
ED18F8E7
FCEEEB04
E0DBFEF1
F6F5FC01
F605EFFE
F2F71002
0208E7E8
00F4ECF9
FDE00AF6
E0F5080B
0EF5F2E7
F7020BF0
FDF7F708
00FDF8F2
0B06DBEC
05EAFEF0
04F51A07
EE1409F2
F5F1FC0A
F114F005
07001302
EE05E7EE
F1FE14FA
F70BEE14
F0F90005
00EAF6DD
12060CFA
E4EDF7F9
DEEFE5E1
FB0FFDE2
F3F4DDFC
E407ECF5
0214E0DF
E6FF0709
ECFAE4E4
07ECFBEF
F7E7090B
E1F100F2
07FB05F6
01ED1015
F804EC04
1119E708
19FB10FB
06FDF602
0F1204F1
F9ED0E14
FFEAEDF6
0AE6F8EE
EDEDEDEB
0C070801
F0F0F1F6
F2FA0BFD
05F4FBE1
E1F4F9EB
F909FCF7
E9FA0200
1806FA12
090DF108
EAF6ECF1
DFEBFCEF
E005EAEB
04030804
E6E3FBF9
EAF6ECEC
0400E709
F4EFF507
F9E3F102
F8EB020D
03FD0EF8
0DF1EDF4
FFFEFC0B
FFFAF0E2
0202F007
FFEA01E7
020DFAFC
12F2FFE6
E8E901E9
10EBF7E3
12121915
1004131C
F0FCF7F7
E0F8FBF1
E6FC0BE4
E2FDEEEA
F2EAE802
0CFBEB00
110CF11A
F706F8F0
F4FA0208
06EA00FC
FF05EAE5
06F4FDE7
FAF5EEF5
02F5F806
08020B04
00DF0109
F2FB0301
F9E5FFE9
FAF1E6FE
E7EEFBFF
FAF600EA
FCEDEE02
07FD0805
03090EF7
F8FC0904
E6121B0F
0504130D
03E8EA04
F1F3F9F4
EDF703F5
F208F303
1CF1EBF9
04EFEC09
00E707DF
FEE906E6
F607ECE8
FF0FF1FA
ECEAFCF6
09090312
00F1FB05
FF0D0107
FEF5FEE6
F8F903F2
030BFBF5
E606EFED
0DE4F907
FEF40B04
01EDF8E5
F0F1F008
FFFFF70E
F9F90709
0AECF10C
080AECFC
F30105EA
F2F9F3F7
E910030A
EB0EFB0D
F4FCE707
ED00F60A
FFEC07FB
030AE4ED
FDF5EBF2
EAE60A03
F8F1FD0A
FBF7EAFD
040DEAEC
06E8EEEF
F2EBF6F9
0CECFFFC
0605EBF6
E605F1F1
0EF7FEF6
F30905FC
0BFA01EF
F8FD07FB
FEFF05F0
E9FFEC01
E5E405FA
F0EBFBED
FE07E4F0
EDF7F8ED
EDF505FD
EAEBF801
090C110A
F9ED0D03
EB09F309
04F608E8
060AF70E
FE16FAE6
E9F0FBEB
FBF6F714
FC08F6FF
FAF413F6
E5FEFDF1
E605F7EC
F6ED090B
08EAFDE4
EBEFF5E9
D7EBF50E
02FFF925
1E05021A
0EF4EFFF
F7E7005E
DB180E23
F801E727
05FBF81B
E9F51309
06EE0813
2215FE19
F613181E
14FB0A09
1404EE00
E5F2EEF7
FDDF1218
D7252621
F6101B1C
E80903FC
3313E6FF
ECECDEEE
22060F07
0F110909
1221F702
F8F9FA0F
171F07E6
FFFC13F6
0105FEEA
BE200C20
1D0FD408
160BE5F7
20F6050E
FC1F1BFE
F1F4F1F2
1C19E7F8
FAFD080A
F1281F29
0FF3F5EC
02F7FEE2
0109F3F1
F6FE12F5
11FCFED3
1C0606F1
01FE0512
F6FBEFD5
0E070BD5
F6FBF81B
25FEF002
F3E8EFD8
03FC14E8
12F90805
1910FE00
FCF2F7F8
F9CE1825
0A0BED0C
020D0CF3
090C2554
0BF50309
FE120403
2BF9FB07
3D34F5F7
05FBF4EC
0CF0E3FD
E1DF1702
2C070F15
1BFF09F9
0E161BFF
FF24FEFD
17F6F2D3
13F0E8CC
251907D0
00F7D0F6
10F8FD21
180605E1
FCFD0B02
E1F2EBDD
FBEFF1FD
F3F509FC
02F7F309
2B1201F2
030F1C1E
0AF8EE14
31180C14
E40B1719
07F3ED06
020CF615
F9020A0E
0300FF0A
F5E9FA15
F2F9112C
FE06162F
F7E0F819
F9D8E2F1
01151C0B
D0062317
C5CEFB12
23FE120D
F70E2118
001122EB
1D1413ED
F1E2DD00
10191A2F
1B15152B
E8DF0306
01FE05FD
171522FA
16EC07EB
23FB0005
F0F5DE0C
2DF60504
0921F4DF
10ECE7E1
0BF21510
191FFE13
110B0EF7
0D06E9FA
D6E1EFF4
0116D601
EDE3E3FF
D1BFF0F9
F9D7F6B8
CE050D05
051E3220
B3EA1B28
D7FC050D
ECF7212E
F8F20EF5
F3100A1C
D6F3E6F6
1C02DB12
11F600EA
03010603
09E0D9FE
10FF0B10
FAEBF6FD
0D05DFF9
ECEE0314
F7FBF01C
361502E3
E0DFF503
F0F1050B
FD04220F
F5EC1D2B
03F51701
DFEAFE00
E802D8F2
EFEFF8E7
1908FB12
3A1718FB
21FF1C11
1C180230
2120020B
E7E9EBF3
15F006DC
26FD1C1E
0F0AE8E3
F51BE9E5
F1F8D2C8
0CFF0A11
0BFFF7F6
FF0AF308
10F9F3F6
07FC05EB
FE0B0CDD
E307F8FC
F3F7F1EC
000E1809
07081EFA
F60F1B13
26031015
211D0E1B
EFF8FCF2
0D0EFD0E
06E71336
09D8143B
1EE5FC08
0C091A05
24010F21
19F0EE24
12170510
D8D6E124
D8F8E028
E9FD1E03
E1D7F505
E7D4E307
ECF0F4DB
0E1CF8E6
EFFB06D9
301813FB
15FCF4E7
D305E700
0A001009
0EFD0D11
06F9F3EE
F80FF900
ED1110F0
0EEC1001
F1ECF1FB
030AFEF5
F3F40FE9
0702EF03
F1FBEFFD
F009F212
00FC0806
ECF0F7E9
FAF311F2
01F7F6EE
F10EF1F6
13FEF011
F30204EF
0F01030F
F709F5EB
F80CF40F
030EEE0A
12030406
00F3F0F2
0AEA0AFA
FBF5120D
0609F709
EDF1FCEB
0AF20CF2
0900EDF3
0F0DFCF9
ECFFFDFF
1103F102
FE06EF09
02EBF8EC
FDEE08EA
0DF0F2F4
ED0AFD12
04FCF7F0
F0F6FBEA
FC0CF2F3
F2FA0606
EB070CED
FFFAF508
FD01F901
00020207
FF09F7FD
F8FC0DF2
F9EF07F3
03FAF0F9
EBE9F2ED
08F600E9
F50309F9
0B0CF2F4
000BF9F8
FE070E0D
FE0E0EE9
F5FF07F5
F40C02EB
06EEF6FD
10FA100E
F5EBFB08
F206F7ED
01FC09F0
3516EFF1
FB1B0502
1112F011
F6F81716
0D090EF2
31221806
0205F2E1
F4FF052A
2A080AF8
0F0C0EE0
E6F9DEFB
E4DCFC31
EDEFF30E
0715EBF2
161A11ED
14F9EBF4
19191E15
1D0D00FA
1310F2FD
CAEC1E06
F4E4FDF2
F810FCED
CDF412F4
11151FDA
1CFB0A02
0519FF29
FA050D27
F4F8E1EA
17121622
4F000402
DD0F1D3A
D3EDE4E8
120D2214
EEF402EC
1905E8E5
F1FBE80F
1BF3F8FF
23EC091F
0221211D
D4DBE2FF
0B16F9F6
F001E8F7
F9F7DCF5
EBFAFBF9
DEE5F7E9
1421E900
F41801EC
080AFDE9
1EF6F408
0A070EE9
D70F2BE6
081207F5
4226EADA
1A181C22
1CF805E4
1322191D
0B1817FB
1E22ECED
0C09FE24
DFE11B40
E8F3F409
F90D1208
170C05F4
E2EC11FB
15ECE5F0
14F5F1FF
03F60214
1414F718
020419C7
09F3EFD8
F1F1FA0B
05F5E4DA
1C04FDFC
1BF5FF0E
13FA0D09
EC1507D5
FC0F1A11
040113F5
00F514E7
050E06F9
DF0CEE06
10F1FA05
15EDEEF5
1CEEF1D7
31051A27
21251A14
F9EF1D26
0002211E
00FBFC13
1103EC07
FF1105D6
F7F60CFC
DF04FA1A
F9DCC7EF
FCEFE8F0
07F6E8CA
FDFE1A17
110E18EF
200713FF
04F607F4
E9121F24
F5EBF8F5
FBFFDA05
DEF919E3
FBFE0509
F51A01EE
09FC0BD4
13133A14
1C0710EF
F2F20FE2
06F23007
08010016
080E0B19
2803FC0F
0A110B13
E6F90E25
1116DFF8
01D8EE11
EEF9E827
FFEFE20A
171F0DE2
F00F050A
1BF9CDA2
D20AD2B0
0C010214
1C08FAFA
0215EF23
DDD9030F
00F1F004
EAF603E1
E2060CF4
D915ECE6
3D4D39D5
FE0113F2
CE0815F1
D8EE1A04
FAF7FA0F
EE0DE7B5
21F201D5
06060B2C
FD05FE18
040F0B1E
28F81BF9
1EF8F2DF
1A0C180F
ECDD1813
BC07FBDD
C40F250F
01F42D0A
D7E7151D
EFFDC5E9
2123ACEF
0D150CEE
DB04E104
02ED0008
1007F728
321D09F3
140509FB
BE101A1E
D3102C44
E5F30F14
002001DF
0EF2EF02
2D1C0AFD
0A0FFBED
D9F100F7
DFEDEA0E
14052728
E212EC07
FA1806FD
0921182F
262BD4CD
F7372515
0BF9111E
FC00FAD6
20E7CEDB
DCDF280D
E6D30A13
F6E5C3EF
160EBDE8
F7ECE2F8
0C04FBFA
E7050EBF
F30522C0
13FEFD0B
2FECD1DD
E2BFF81E
FBE91A3A
E8EAF3F9
FF1602FF
EF18FF0F
FA1719E4
E71AFEF6
300CF601
03FE0DF8
ECFD03EC
F20DF208
11041C02
11EF0F16
2103DDF7
1413FE1F
12F1FCE1
0B19E9DF
C9DDEEF4
17EBFF05
191CF4FF
070CE40D
16FCDFFB
E0132830
070E0C10
0F14FC0A
0104FEE7
1001E303
07110FF8
0D09F8EA
1303140D
F9FFF524
F2F8F201
FF0BEC05
01FAEEE3
FD20FC1F
F20F08F6
E8F9140F
CBE8D9EA
240FF806
1419FAF0
FDFFEBDF
F0FFE406
18040BF7
E10BFB13
070001FB
F4FDEFEF
09F3F113
0417EAEE
070DE9FF
DCF9DA08
1FF8ECE8
0406EF0F
0E0C1106
2618F305
EDED0814
020C02FD
1F161102
F9FE0A0B
D3D000F2
F9182B2D
FC2B14F0
0DEB03F6
110B1B26
FF061914
F7D9D9DE
AAD7E6FC
4910FDE9
12100204
F6111500
E1FA17FB
0DEBE2F4
FB06E4EE
E7E6FC05
F2E90908
F10C0308
0906F7F1
E41208F0
03F5F709
E303E9EF
03E9FAFB
EDE80701
0DF1FBE8
E2FAE8FC
08ED0001
F3FFEFEF
FEF2F4F6
F5F008FA
ED00E2F6
EFF7ED01
F7EAE100
01F3E600
F4EEEA00
FAF8EAFC
02FCFBF2
F5FAF60B
EAF7F2F6
F4FFE6EB
E3FBF8F2
F4E30710
F9F6F9F0
FAF209E7
F303FAF4
E902E5E2
07F1F0FE
07EEF8FA
EAF8F1EC
0405FBFB
F2F9F7EC
F5E80A09
070705F5
F9F906F2
F5FE03E6
01FFEDE6
EEE7F301
EDF5F3FE
FE09E1F6
07FFFFF9
F5EBF2ED
08F5E4EC
FA11FC00
EB010807
FAEDEDE9
01F2FE02
0300FCF1
F5F0060D
F106E601
EDF704F8
EEFFE3F7
FEF9F011
F3F80BFA
FEEF0805
F305F9E1
FEF3FB00
06FAF908
FB19EA0B
2BF8EB02
2B22FBE4
130007FB
F9EF1402
05F5140C
10FEFEE1
001CFDFC
0312F91A
FE1607E0
F51003DA
E8E81414
0609FBF9
01FB0415
0CF40B09
110609F4
FBF21422
0E02E106
0733F3F8
F5140009
1DFFEE0F
02F90D0F
29FD1500
4A1118F5
16FDECFA
02040418
04F21030
12EDE5DF
F518FDEB
F85135CE
D3213920
E1C4EEF8
1A0D090C
1E16F906
19E90EE8
01FE18F9
0DE4D91A
111A0908
08F52E1D
DBFDFBF8
0F0EF8F8
2115190F
0BED03F2
F4E7FDDC
1BF7DF01
09F20122
08E4FB0D
0E18E7D5
1314EB01
01F81BFD
080B0AEE
25FFF0EC
CAC5D4F4
F115F820
02F608EC
F7060B0E
FCE3E9E0
F401EFE2
0CF52716
BD12202C
1407F702
150105FF
F70B0402
F11FFFE7
0BF4F60B
1011F3FB
FE10050B
12FFFF0F
F3F4080B
FCF403FF
F8F10AF3
FF11EE15
F2FBFEF2
0B12F1F0
00F21100
F6F1FF00
0012F103
F60A0206
EFFFEB05
11F80809
EC0F050E
FBEBFDFF
EEF6FAF0
F4ED0EF9
EDFCED0A
EC0EEEF4
FCFEFD11
F2ED07F5
FF0FF700
FEF9ECF6
10F5EBF8
00F3FD0E
FCF50BF9
0F0CF5F7
1112EDF5
F8FFFE03
FC05FAF6
EA0C0703
F506F1F3
FFEAFBF4
F8F50B09
FA00EBF0
03F1F10F
F10DF5EB
F1060D10
04F10BEF
F008070B
110911F6
F2FD10EE
F9F4FF10
EDF6EBF4
FE0801FB
04F8EDF0
F1FF11F3
F3F5FD01
F0EEF409
EFF30602
FBFBF913
09110901
F0FBFA0A
FAF104FC
041411EC
0B10F5FD
FDF506EC
0E08ECF6
F6EF09FB
03FAF100
0513080A
1EE305E5
0305F919
16E40430
21110DF9
2BFE17E0
111A0C16
E2F5F30F
181D081D
1912FEF0
DDDE001E
0406020B
FB13170D
ED064325
EEFE0DEF
F5F82DFA
040A0FE1
0B08E4E9
162516FE
E9EF0017
1809161F
321DEE0E
E4FEFB0B
D9EAFA09
131CF0EF
20FBF71C
1500E8EB
1105FF05
F7ED02F0
0C174652
69F1D016
231EF514
DA08DC0B
E3F21715
00ECF114
0A08EBF4
FB18F50E
F201012B
22F0E7FF
1AF8F8F4
D2FFF509
06FC290F
FEEB1D02
11F6FCFC
EFFD1DF8
FCEC00D6
F6FA09D4
F6EB1BE9
0FFBFD0E
2C2606E9
0B070ADB
DFE1F701
F41D0100
6950E9F6
09CE2113
E5D5EF05
051F22F2
F40EFAFC
441D1523
4A17E923
0A0B0D17
B5EF1F1C
F111FCFC
F200110C
EFFEFB0A
F7FBE90D
F905E704
08F50DE3
F4FE04F8
EEF0E7F0
000AF0E9
E5FAE8F1
FCF6F8FC
07EE03F2
0907E4EE
11F10FF4
DDFFF0EE
F8F1E6F8
0DE40D11
E5EE0DF4
0AFC04F0
E5ED00E9
FDFB09D9
E2D7E7F8
FD13F610
110311EC
0A01EFF0
07F6F607
FE0A0100
09F2DFF6
EA02F408
0BF5050E
E2F1E2F1
1304F0E3
0EEAE9FA
FC09F011
F4FA0211
FEF9EDF9
DFE7E207
00F2F101
0A0DE6F6
FB0DDAFD
E6E2CBF9
E90B0717
FCEE0203
F6FBE90C
F1F7F00C
EB0AF303
08F202F4
11FEFB09
F8F4141C
0CDE0A07
EF00F416
F7F509FB
04F8F009
ECFF0405
EAF5EB11
EB0A0212
07F9020E
F9F9FAEF
F8F902F4
D6D303F0
0BEFF0F4
F9050CF6
0BE1F208
04EF0BE0
03F1F8F3
F0F5F100
0412FEFC
DA182108
FC0A1215
100408FE
F60EFCEF
EE010F54
0E06F849
E3F5FA05
F60D0125
E3EEF20A
EDF50C37
121E0C0B
FCED220C
1A07FC18
17FDF9EE
1109FEF7
E9EFF7FC
E1120001
F4171704
DB15F7E8
21071122
2D05F4E0
121DF9DC
25F3E8FC
1608FDD7
02EAEDFE
020801F2
0000011F
091F1202
CA3D232D
F61217FD
F8090219
241E1614
1019F0F2
FCE4F8F1
F71AFA01
F00E0DFE
0409F603
D6F9EFE0
F314F60C
13110AF9
EE03E603
FC16130D
18090A1B
EEDAEA13
12FDDCD7
02FFF8C7
F5D8ED1E
04F9E8FD
2521D6DB
08110AD8
190D0708
F801EEF6
E3D909DF
0CE01B1E
FA18F9EA
05000E0C
C4EBFB4B
DDF112FF
FC1A131E
0EF51D0E
2B360EF3
1307F7DF
EDEC02EA
FA1503F1
EAFC06FC
EA020204
FC070307
1D0D0CEC
EDF30C2B
060DFE1C
EEFC081D
0408F00B
F3ECF3DB
11040C14
0E1C1717
1C2416FC
FE130BF8
09F0FFFB
E9F200E9
090EED0A
E3F5E404
E5F40B12
ED11F621
060F0F15
192913FD
0BEFF4F1
F604FEF4
180FF209
F208EFF5
221016EC
0B1E0AFA
030C1AFC
D8F9FC11
E1091634
1A1A0EFB
39201405
FBE905E7
F4FA0211
1C2A001A
0F18F6FB
D0F7DA0B
EEFFF8E4
102508E3
3A23FEFA
F107F90A
1F0E0313
26050F05
1ADDEBF6
FB100BF2
07F800E1
E7F2F70D
02E8F919
0E22F4FC
ECE4F2F2
0812FC0D
1E031EF0
230701FB
1906FFF1
210E010E
EBFB171B
EAF0DF28
16050EEC
2E2E3139
2D0323FE
EF27FB09
F4FEF3EB
F100110B
0C07F809
FF11FBF3
C5FD08EA
C311FF05
FCF810F7
F9E9BFC0
EDEDE4D2
273128FE
D70CFFDF
0B0301DF
E4220CE3
E8DED6E1
28FAF703
F60806EF
121CF80F
0A21EFFF
19150019
B0DAEF0C
F7BEE611
0C181310
C5F8FCE0
F8092003
2B06FBE1
E816FCFF
E6E70A35
00E70814
08101F03
DBF1F6D3
041214F5
F6B9D202
FD374629
E906EEEF
F81BF4F6
F20BFFF7
DE251BFD
FAE90EE2
060403F5
E0D8121E
CF0A2303
F90FEFF1
0103EAFF
07020FCF
FB1AE80A
F908D2E0
1436FD11
211A10CD
FE03AEEB
041E07F0
DEF03A37
0CF20213
240FEFFC
F7FEFF04
EF09002B
D8F0F6E6
E0DAD8F0
04EDF61E
E426FF1B
F8E7DBA8
BEC3DDFC
02D81D04
FC311EF1
FAE72218
D2E22C1B
ECF51F0F
E30510F1
02E7FF0A
F6E90E0A
0CEFEA12
EC0600EA
FFE9E6EC
FFFEF009
00FC0BF7
0300F5F4
100DF50E
F6F8F0FD
EAF00D06
F106FF07
EEF8F6EA
FD06FDEC
F8F6F204
060D05F3
F604F0F7
E907FA01
02EDFDEC
F9F6EDF1
FB030FF1
02F4FBEC
100305F2
EFF0FCEA
FD0D05FD
11E604F6
FE01E80B
0310F4E9
010FFBFC
F7060A01
F0021210
F207F5F2
01F7EA0B
08070A08
0FEC02EE
F905FFEB
0B08E8F4
FCEA0F05
E1F0EF0B
F40AF208
F1030A0F
ECE3F1E8
F6E9FAF8
FFEF01FE
FAFC0BFE
F3F6ED02
FD07EBEB
F204FEFF
EEEDFE12
F2E90109
ED05EAEC
11020DF3
F40BFAE0
F7F4FB04
EB140AE3
FBE011F8
02EB0822
0E04E2E0
FD08FFE8
F5F90CF2
0DE001EA
07050EF8
F3F60F00
10EAFD0B
DEFBDA0A
CAE4FAF1
E9DEDFE3
EDDCDE0A
FC16E5D1
E7F2DAEF
FEE1E5F4
F7DA05ED
F8EB06F1
FBE70307
F9E9CD03
33EDFDF5
03122210
0817D40F
E8F8F311
F30FF002
05EFFFFE
02F2F8FF
FAE2F1E2
DAEAF102
00151AD2
EF1411E3
F2F81BE6
E4110DED
FCF80DD1
00D0D8ED
DEE3E408
03040FDC
F801E2E7
EBB7C7D8
FFE9D4FC
C5E4F9FD
F11626E3
F612E90C
EAF1DEEF
031A02F7
FA241AEB
F3E5FED6
D5F71100
FC2F1BDF
E606FCDB
F11AE711
FC1CE701
051FFCE3
0821FAF1
E50CE0D7
F52611ED
EF24F8F5
F8F719D8
E8E916DC
F3FC0CED
ED17F4ED
F6FA18EF
12F902F8
01D8E4F0
0BE6F30D
1FEADBE0
1EE5F9F9
E7C3C3D7
1417D611
E9BB2A06
E8D9FEF1
04EDFE09
E5F627FA
0B081F19
EE150A0E
14F0EFED
1A21170F
EE09E523
F3210EFB
E5FA02DF
E204F8B3
1001F2FE
2E3506DF
140405F4
212F08FE
0416EEF3
0CF3D507
FE1EFE08
0CFD04F7
E000100F
EC1116EA
0D110EED
F4F212EB
0E06FEF5
F62206F2
E6041CF3
0EE0F3DC
12F202F3
091DDEF9
DB230203
E9130B0A
D6DEEA10
EE02FBFD
DEF11A0B
CE091717
F70802FA
0FEEEFDE
330607F0
E90409FC
07E6F2EE
190BF4E7
1F05091E
DF09F2E8
1CF4D0DB
0A11D5EB
1503ED00
FDF4EB1B
1924D4DD
0F12031F
FB1FEBF6
11EFE3DF
161DEBDB
2020F102
F7031404
24E91BE1
200B0CF9
20123307
DBF0F2F6
CEFEFEFB
12ECE0F7
0A05F2D1
14EFF4FF
D6061A11
EE110CEE
0EF902FB
04D40E11
E5191B04
FCF507FE
FFFBF7FF
EDF3F7F4
EE01F30F
F6EFF4F5
03DDD7DE
0FF8F3E8
15161220
FEEFE6E3
10FD141F
F6E40E0E
0BD5C9DA
F7180A19
020D08EE
0A11F715
101B1FF4
CAADD0F3
EAD9DDD7
0BE9FBFE
0D031922
1D371EEE
29EF1BE4
ED041018
E7011600
F4F900F7
10FA0BF9
F8000616
FA1D00E4
E1EAE2EC
F7041006
242BF71D
2C12FFED
E204EBE9
0C08FCFD
EAFF0F0F
1E0EFCE0
C9F0111F
DBE8FCE7
FAF60807
1508FFF0
F21110ED
19242926
F406F3F1
F1F2CFD2
19020005
1306E9D4
0B060011
F6061E24
131205D4
19FBEE01
F6FFEE05
E8021EFC
0FF708F6
EBF3E413
F5F2FA05
1F160F03
FBE2E0FB
E0022605
EFFBF704
3CF2FAD5
FE012E18
F4DCEB0B
E601170B
192209FA
FDF8F7E9
08F90FEC
FBF4E8FA
020F1007
EC0203F0
FCEBECFA
EF11E9F6
0200EFEC
F0F508FE
F5EF0F02
FCFD01F7
EF0105FE
0E03FE03
EA0803E9
FB0FEFF6
ED09F0F6
EEFB110D
04EE0AF0
FDF2FCF6
F008EBEF
EEEC0BF4
090DF6F5
EE0BF20A
FDF607F5
09FE03ED
F6FDFC0C
F10EF0F2
0D11FE0E
F30FEAEC
0E0DF5F9
01FDFBE9
08EAFF07
FCF1040D
EAECFC0D
0FFC0D0A
EDED0BE9
EAFA0EF9
0DF60D0E
EDFF07F5
FD050AFD
F3F10CF6
100AEFEF
0EF70EF4
09F70F06
0F0E080D
F7020A13
02F3050A
F1FFEBF3
FE07F20A
F0F1F6F8
06ECF1FD
F8EDEFFB
EEEFF4E8
0EF6F6EA
08ECF0EB
EE0EF5FA
F6F7F6EB
F8FFFC02
F1ECFD02
0B030006
050FEAF4
0CF2F900
ECF803FC
0DF00E0D
F7E004FF
EDE7F910
E6ECFCF1
FDF6F5F1
1D1E13DD
1D1E13C1
ED17EFFD
F020FF0E
09F2E1EF
DC11F314
13030F06
06E4FA09
F1131204
F70508F7
1B10000C
02FF0A00
2FD3D6EB
20E8FCD0
D90BFE09
E6F71B16
0A2111E7
EA032908
C3EDF5F5
DF0AF606
FB0BDFD4
EE0CF4E5
F5EFEFF9
F2FFF00F
362108ED
35EF09F3
00240B05
060BFDFC
DFF5F503
F6F0FEFB
11180B14
020D141A
EEF8F904
0F02FFEA
0D0F1400
0F15061A
DC0A10F7
FEEE3133
0A1BFF10
01F6FFEA
05FF0F11
0C0F08E7
EFF80EFD
F4080A04
0E15F7FB
03F01BE1
D504F910
DDFA19E3
332D15F8
1EF9080C
0FDDF6E8
0C0B1C05
130FF2E2
2C2200DF
17032729
1810FB11
D1FA0B1A
FEE9FAF4
03FDF00E
F70F09FB
F1ECF50C
EBF9F311
EE050AF2
FFF0F7E9
FAF9FBFA
0E10F6F6
0EFBF9EB
FBE801F1
0CF8F0EE
F9060905
00EBFF04
F012110F
EE08EC03
F4F108F3
0AFAEAEC
00F5F6F7
F9EDEDF8
ED07ECED
EF0AEE10
02EAFC0A
000005F6
0B01F5EC
F70C0207
06FFFAE7
02F8FDF9
07EBFFF3
F30806FC
EEFCF604
EDFA0707
F008F8FA
EBF8F8F4
FC0BF0F4
FFE9EAEB
050508EC
EEF5040C
09F6F911
FA0C06F9
F7F5FDF1
F1FCFAF1
FAF9F4F8
08E8F2EB
E7080807
F5FAF6FD
ECEB0AF2
F3F810EE
ECF1F704
F30C01F0
EF09FFEF
FA030A00
0004FDF8
FA0E09F4
FEEFECFF
FB090CFF
010E02F2
F601F6F1
F30E06ED
F7040B0D
0DF40FED
0DFAFDEE
0A0601F0
F8EBEDF3
0DF3FBE9
FCF3F110
060500FB
41EBF6ED
1004FEEF
06F81713
03EF13EE
0B2A41CF
1B282DEE
F4E90C03
05F2E2F9
1A151109
F61E0802
0907EDFD
F80F01C7
DBF62119
04E30AFE
F11504FE
15F3F9EE
35FDEDF7
3AF505F2
F804F915
0FF2D4E4
1428021E
E7FEFDFA
E6090004
F8EF11E1
14F90EFF
01101410
11F4F203
00FE09F5
25111E11
3A040508
07F3E1EC
F9FCFD0C
DCD8E4FC
FDF22518
171E1AE4
0B1AFBDA
F5FAF90C
30F5111F
06040707
FA0911F9
F8F41425
F1FE1014
03EA12ED
FCF508E0
E60E272C
F00E0D06
05ED04FA
0FF5FAE1
1815FF0E
F200F713
E9F1E5F3
F5FE1D01
5C57140B
280507F7
DCF308E3
F3F4EFFD
0E260E06
3639200E
2512E3DB
1201F1CD
CFD9D9FC
FEDAF3E9
1AF81519
F0000915
25E9DADB
01E7F20F
F7E90911
010901F8
120C1B9F
F217F5DF
020BF6E9
FC12EDF9
1F1BF60F
EFEE04EF
D4EDF00B
151E2918
FFFA0419
0700341A
04091E0B
FE00FC18
1E0EFFE8
1F03F6FD
01120012
EDF9C802
E90B24FA
FEF222FB
F1EE0C1B
1E05E709
0728140A
FE19EDE3
EAE40AD5
1603F802
F30527FB
1209D7EB
E5E8C8E3
E7F2E9D8
05052114
16FA131E
F1F1E1F1
DEEF0E0D
1A190822
1D0DF7EA
01ECEFF0
C9DF0612
01F22718
D9E705F0
02F11CE1
FE163F20
F6E714F9
F00F08E1
FDF1150D
1DF61A21
0905FDF7
DED7200D
06E0F612
1602F208
0E0E0F0A
E7E4CB1B
FFF7E400
F9041FF3
02241ED6
1C05E2FD
FAE7C1E9
F6F10C04
08DF0A2D
1821FE04
1525F01A
EDD1E50B
0104FCF2
06F01505
E906ED11
F0FEF5F0
10111F10
F3F10124
F605EB02
080C0A10
F5EFDDE0
16110B2A
07F90E25
05FB02CA
F308180E
051011EA
04F6F7FA
03FB0BE9
230FFBFB
D5F106F5
CDFDFCE3
240301F8
F8030103
F601FC06
F205F410
E811FC1D
DEF60D06
03E506D7
1CFA0704
011D180C
03FA0427
D70017FB
4013FEF2
2F231C07
F2F402ED
150506F7
13011B17
13FB01E1
E3FFF203
DDF4F0EF
02F1EFFB
0D1C19EE
0AF515F9
272D0506
FE0FF5FC
ED06F202
02281435
E2E603E9
06ECEB02
EF032623
EFEDEA0E
DA0EEFFD
0A20EAFA
EF0BFF02
11000B07
0DF80DF8
061E1117
1EEDFB23
16F6FB01
220A331F
F613EFEC
3EE7DCC1
EA0206F3
D7E7EAE1
DCE50304
1009100A
EB021B18
1C251C11
15F309F1
F4240606
FDDBE442
FEFE0211
1405F0DA
E6DBED0C
0AEA0AF7
1902F7F2
0203F705
EC0D011E
0A0703EB
060508E7
00F4F3F2
1FF6F70F
D0242728
FBEF1A0C
201DE9F6
F20D0D17
EEE4F8FF
11ED0807
1CEDFEFF
13F4F600
DFFEF91D
FB0E06FB
0400142D
F2F4F41E
C201FA00
F9F5100E
DCEB2C0D
E4E5021E
270CF2F1
0313F4ED
15FB0407
1D17F21F
1A050609
F807FF1E
0D103002
FCEBF20C
FEFFECD9
FFFAFBEB
0D01F815
16F5F620
0CF9ECF4
250807EA
0925DCD7
F7EBF0F1
FCE3F3FA
1E1C0FF4
FFF419FF
0CEF0BFD
E0AEDBF4
0717FBFF
FB10E6EE
F6EC1002
F0DE1B0A
D2F502ED
1622153C
0DF03241
0807FCF3
EEF7112B
020704F1
F520080B
0D05FC14
0907F1EB
F1F40A03
F20CEAEE
07E209F5
EF0B1806
EAE4EDFD
E8F60E0B
030708ED
ECF0EF00
E4F90D0E
EFE5FBEE
EE04F5F4
EEFFEE03
FE02F405
FC07F001
E6FC05F9
0C010306
FC04FDF7
0009F5F8
060607F4
E1F3E8FD
F9E3F5ED
FEFB01F0
F8FC0309
05EBFEF0
F6F809F6
F0F6F001
0B0D08F9
030EEE14
F61800F5
F501FAFB
E4EBFEF1
E9FFFCE8
EDFBE705
EEF9E906
F50CF500
F0F704EF
FFFBF0EB
EB00EDE9
F7E8E5EA
08E90BF2
E5E9E5FD
FDE3EDF6
FC08FFE7
01EE110A
EEFCFF0B
FAFBFAFB
EBE7EFE9
F0EDEB0B
FBECFBE4
FBF50308
04F206E8
0107FEE5
F5E410ED
F204E8FB
0D0FF7FD
12EDF8E8
E1FCF1ED
09EEEFE2
E2FE0805
FBF1E8EB
0A080608
00F20AF4
0208F812
030B0DED
14F3F9EA
EA0CFDEA
15F3E9FC
FAFB0CEE
02ED010A
F3EB03F1
F20BEE07
F5ED0CFF
040EEB01
0DF609ED
FFF9F60C
F7070EED
0D010F01
EEF00FF4
0506F4F4
F3F4EEEB
F907FD07
07ECF502
F1FBF2F9
0C0BF0F9
F40D0709
150BF6F7
0CF105EB
1014F010
FE0A03EA
F408FA04
FA14F9F6
08FC02E9
0907FF0B
F9EC0AF4
04F002EB
FFFDF8F7
F50CFDED
050D0CF2
EEF6090B
08EDFEFC
0F09F8F1
EFF605E9
100D00F6
EB0A0003
04020CF6
FD0D10F4
10040CE8
ECEEFF01
040803FD
010AFBF4
F1F9F9F7
F4FC0DEE
FBFBECF4
01ED00F5
141405FA
10E907F2
10F7ED0F
E9F20EFD
1001F1EC
10FBF7F3
0D04ECF4
09F01115
F610EE06
F8F4FAF1
03FC120B
ECF6F3EC
F60EFC0A
F61308F9
F6EDEEF5
D5FD1005
EB1503EC
26170BF8
0A0BE9E4
ED250429
26061DF1
ECFBF60C
EDDBF8D6
E3E5F737
09F808FE
140EDDFB
1F14FBFF
FB0BECFA
02EAF5EC
110514DF
D00F20EB
F6091B24
2104E8F1
F3F71EFF
02050CFA
01280FF7
070BE9EB
E511DB00
05DB150F
F8FD02F4
1A2A1B21
2CF801E9
ED291D1C
E5F4E70B
F5180AFE
02FAEFF5
D5DFEA01
F1F9032A
0814EFF3
F602FCE3
F2E60FFF
EDFAF4F5
061104E7
E3FAE401
061C0320
DEFFEDED
11FADFDB
1E1AEDEA
06EA18FB
0208FE00
24230DE5
16FA0002
F5111F0E
FC19FBF9
18181512
050C2F36
16FCFBD8
24453C18
FD21F502
06F2D5C7
CDDDDE15
F0E3F768
0B1A1CF2
F503F301
F509ED00
F70417D5
EEE1F9FF
05FA070D
0201FDFC
E2F9FE0B
110AF1EF
DF10F513
000FF7FE
2A02E10E
03FCE3F0
29FF0311
0C03EBE0
DCC3E2CA
FB211B18
00060CF7
0F11F90F
051D1404
B3ABCE10
CDD8F7F9
02FC16FB
44110DF1
342D01D3
050A0DEA
01090DF4
E6120404
E0D9FD0E
290CEB01
170112F5
0414F3E0
E6FA1409
1BF7EEE1
220E0902
0501EBDA
DE0C040E
18181801
FB050EE4
DEFA03EF
BCE51610
17F200DF
DCF01C0A
0C0EEEE2
F731210F
2B0A0DF6
EAFDEADA
CBECEECE
1E1E0F11
F10EE5F3
03F50816
06281607
F81512F9
0819FEE7
170CFC01
F30014F7
5425F0F5
EC141F15
E3110CFB
35190110
0DF7EFF3
0606200B
C9F6CCDD
1BBBD6FB
C2F2252F
CFD9ED04
01032605
FD1C2CF8
090802F4
26F4F2DF
E4FA0401
D4E912FA
FB0E05C4
0AF6F7E3
051906F7
F919E4E3
1C160A02
0217F2DD
E50C05F3
ECE2F5F2
E9E10015
F5101121
F60CF30E
0D180AFE
FA03F407
090CD2F0
FB130EFF
0307000F
16021B1D
07051E09
11FFFE20
F1040D28
041117DC
10E1141A
03F80BF5
FAE00706
2C13EED8
F80703DF
E70D12FD
F1E3F1E4
FAF80811
080D0010
E6EC02EF
F5E908F2
02F6EBDF
DFF6140E
FFE80E12
EEE90E0D
13FA0CFA
FF181A1F
EB07090F
0BF3E9E9
0703062A
01F80E17
1A0A1210
12040F02
FEFB2101
F2150701
1411E907
E2F5F325
E3F4041C
FA02D0E6
E3FD1218
19F1F00F
1FF4F3BD
EFEDFEEC
E3ED07E9
CDE2F6E1
F2F8E906
07E7FC0C
F618FFFA
0C13FE0C
25F6FC01
22F2EA0A
2304F1F3
0E03051C
02EFF4C1
09F7E6D1
FF0302DD
FE00FBC1
1E07EDEF
05ED15F5
F8FE000D
062A0300
F60F14FF
14081B0D
F0FF2805
FE13141A
F5EFD5F2
1DF7DDEF
13EEED17
22F4DEF5
0F261010
F5011618
E8010919
DDE60C21
FF0AE8F0
171817FA
F8F61FFA
F71C0EFE
1303FDD7
09F5D6DF
0802D7E2
15070BEA
0BFA1221
F7051B1A
12F91D00
F20B0C17
00F1F606
FDEEF6FD
F8EC0A06
E013200F
0815FD01
E40B0422
F70C0B06
0FF72221
FB03FAFA
EA1120DC
ED01091B
13040900
FD1D0315
F71702FA
00191723
EB0D100D
0E3D2709
EBF7F50F
FCE20C2D
1808ECED
1003EDCC
E4030BE2
16E5F4DA
06F8E6CA
3103090A
29F8EF17
270EF021
D2EC1619
0D17110B
CEFF0904
F60A0D06
AFFFFDFE
0329EE18
0207EBDF
04FC04F7
03F1F6FD
19F502F4
020905E3
E104F4E5
F20B1925
0C0FF5E0
0608EC03
2C130013
0312E8EA
15EDEB0A
1608EFD6
EC280DFB
F90E0C0A
101117EA
F60603F9
190109F8
0F2C18E8
1609EED7
F612F9E5
DCE50605
0A0DEE00
17F7FEDE
0914161E
E5ED0C21
DAEC0C2A
F80EECF1
060809F6
00EFED10
F5F00929
1AF2EBEB
1F0FF2EB
D2030A11
E204050F
F0F5E0E8
FBDBEFFC
0005021E
1126E62B
0602DBE1
111CF0FE
040FF5F6
0807D4C3
1B060FE0
0C050B03
FC0D0EE9
F12811F9
08250CFB
FBFB1A1C
18E5F1D7
0918330C
FD13EEFB
FFF5D2CC
F7F60610
C4B90E4E
D80702F2
F20C001C
11F2FCF2
D90805F9
F609F5F0
1E05FA13
F20C0A05
E2D6F4F7
F5FDF510
16F70804
FA16FF3C
19FA1642
EE0CFFF1
04FEFF19
0EF9F80B
F8ADE5E5
08F015FD
0506F5FD
08F2FCF0
0206F5FA
E7F90FFE
E8221A0F
C7D723ED
21F30EFB
EA19FFEB
1C18F0FD
370FF506
E72A1D0A
EBEC0A0E
18ED0711
260FF0E8
0DFAE4E0
F629201E
09180916
3C1C04FF
29F9E7D7
160E0C0E
1CFA06F9
DFE90A11
0EF609E7
EE2C141E
E2FA09EA
F1FA01F6
2003FFF2
0A1F0DFF
0F0D1E09
06151105
FAF5EBEF
15EB0A1C
F2EDEDFE
F4F2E717
F92A2E31
F5F3E205
130500F5
1E1BF116
F80D051E
E0FD0AEA
0DF72011
06312A14
27E1F802
0CFD063E
FC13153C
DEFDDDF8
38FDBAC6
032815F0
080804D7
CF0FFB0C
200905F0
FDFE05FA
FB121618
E700ED24
FF0A03FA
081B0E11
0C05051A
F3F4011B
E4EB0915
F0EFFBEC
05ED0E05
0BF80134
212E0F00
F0010708
F0100802
F416FCD9
10F3EBF2
1F1B14FC
F819361E
E3F90FFE
F9F305EE
EFE8000B
F2230F04
C102F70A
E2FEEA00
0B0B10FD
0FFAD603
F810DDEC
EFFB15F2
DDE2171C
26C2D11B
1DDBF509
051BFEFE
0BFB0901
E8030EFA
160FEE08
0500F50B
0B2E2AFD
01FCF5FC
F8E9DDF6
0A1306E0
E8EEF104
F1F9E105
081EE5FE
1C0F0717
F40319EE
FE1328E3
FF1F19D4
020D1A20
ECEF0214
E7F20EED
F6071BF2
F40117FB
3E010C0B
22DC3AFF
08E10A20
1127FF12
F0270D08
2C16F937
10E8C6F2
3AF3E70D
F2FFF8F9
F21A0510
03EA0B15
F7DAEE02
29F11DF2
DAF31006
00011314
FC0409FE
081024EA
1C010D12
FAF8011D
E8012011
FD00FDE8
FE0D031A
1FF61425
3A1C2408
0C20220B
FEF6EB04
010802DD
1EF7F9EA
43FBF706
10EE1516
EFF5FF19
EFFFFB04
F60FFC06
DD07F4F1
D5F1010A
F4F7F8F0
FAF9E8ED
1205E908
E219E5EE
E9211211
20F53019
32E6FD2F
1500D613
0D210829
D7F709F1
F3E61311
22250909
2805F119
E2EA1100
0CFA0C03
F609F2EC
221FF626
E10BEF03
02EC0007
FCFA08FB
3604180B
FCFA110F
E915F5D3
0722F1E9
F9FFFEF1
041F0C03
E807FD06
E4EE18F6
FB131711
5F3A07F4
0AFF2D01
05E11917
F432071A
FA0FE70D
3B060C02
1BFD0314
38FB1F04
BC0EF906
DDF9FEF4
0AEA0B0B
16F0EC0D
050202F5
EAFE0DE6
F6F608E3
FE06011E
00F8E5B2
EBECCDC3
0E0B1602
E5EB180B
EB01F709
EB10EF12
F9F4F31A
29FAD30D
06FFE5F2
F502F712
EAF5EB10
171EE931
D6FACECF
F9F9D9EA
15011600
E103EE19
35210F16
3AF409FB
1416F8F5
DAE2FB08
ED02FA09
EFFB1523
FCFB09FA
FE09FE14
E0E2CDC4
FFEA1511
F5011310
FAFCE503
F3FC09E7
F1F4080C
F3EA1312
11F5F303
07D2FFF7
EBE81B28
F5F12027
1C10FF03
EDEF0C0F
0107132F
000CDF13
31FAF311
1804F10C
0BF2F01D
1C160727
F9031952
1B111805
22060312
FB09EC0F
E7F2020E
DCEF0CE7
F809FFD0
17E90BF0
DB0609F7
D9BDCFC8
E0FEF013
0FF6270D
450B100A
F6020017
FDF9FC08
0EF4F7F7
F61B1411
00001199
000001CC
FFFFFB27
00000137
FFFFF6E4
00000E93
000006DF
00000A54
00000076
FFFFFB61
000003A6
00000772
00000726
FFFFF558
FFFFE572
FFFFF816
00000BE8
00000387
00000A29
FFFFF32E
00001278
FFFFF9F0
FFFFFCC9
FFFFFAC8
FFFFF1C9
FFFFFB80
00000041
FFFFFB82
00000568
0000111C
FFFFF4A1
0000066F
FFFFF09F
FFFFE9C4
00001180
FFFFF856
00001D76
00001164
000001B8
0000157C
FFFFF751
00001553
00000A3F
00000DD2
FFFFF6A7
00000EB6
FFFFF940
FFFFF2C7
00001DBF
000016DA
FFFFE9C8
00001333
FFFFF49E
FFFFFDE3
000005CB
FFFFF3C8
FFFFFF6F
00000BD4
00001753
00001374
FFFFEA86
0000097A
00000D53
0000044C
00000AB5
FFFFF7F6
0000103A
FFFFFEE7
0000094A
00000937
00001DBE
00000599
FFFFF727
FFFFF379
FFFFED91
FFFFEFD1
FFFFF36A
FFFFFC3A
FFFFED01
FFFFEB13
FFFFFF1A
FFFFEC7C
FFFFF083
FFFFF3A7
00000D23
FFFFFB35
00001F14
FFFFF477
00000123
FFFFF440
FFFFE7DF
00000130
FFFFF440
FFFFF623
FFFFE464
00000B39
0000033A
000011B2
FFFFF973
0000000F
FFFFFA66
00001026
FFFFED4A
00000BCB
FFFFF83C
00000103
000013DC
0000022E
0000119E
FFFFEE3E
FFFFF6C3
00001B1F
00000605
00001926
000012FB
000013BB
00001547
0000064A
00000EED
0000020B
0B220904
1629EF0E
081D0BF3
23E4C2F9
D2EE0CD1
E0DAF418
2E32F01E
FB01E61C
04DE0E05
F5123500
F1B217E6
E6E02806
36E431F3
28D2E8DF
DD31EC22
FD1BF506
061F4721
EBF61B16
9013F5DD
151129DD
E4DF0DFD
06FCF1F6
CB0904EF
F20ED410
E5F5D532
340C5D07
451116E9
DF2539D2
B7EFEA4B
15041E35
22E014E2
0CE42504
12FADA0B
18E5D804
ED03201D
EC23002C
E4D420F1
EDFFF4C2
250EEBED
DC0B0C07
ECF4EF19
271432FD
12F9EC01
DA2D27DB
2440131C
0202FFD6
E50619EE
0604FE08
F330D10A
EBF826EC
10FC0513
1D29F31A
E1E9E3E8
F3FE35EB
FF10E0EA
FDF2EDD1
F73C1BE4
20F60210
DB1CECD5
09F1DAE1
27B9C9C3
B54B04EC
F0D4DD0E
CC202D13
10FD040A
F6FFDAFF
1A244311
021DE82E
23D7FDF5
E617D81E
4407D726
031A151B
BDE428FB
19F10510
14E8E31F
1C39DA13
F8EF392B
F6301208
DE2A2115
EDF4F8F3
28F51AF1
DB171D36
4AF23746
240BEC20
FC03470B
11E200C0
F3EDB3DA
39E7FC40
1AFE3CF5
33F8D120
091B141D
D0071D2C
25E200F9
E41729F9
1E0823EA
22FCFE0A
E118E6F1
04FEFB11
CED0E1EF
17082711
C8DA060F
0FF4BB19
122EDC1B
26F21DE8
170CE61D
EEF9012D
2012EB01
0A1C25EE
3BCF19FE
132802DB
14F20106
0E3119DE
E428E90C
F9F43F04
2BFFE728
28FBF920
2C234B02
E0EAF5F0
32D2ED4C
CD4827E2
3529FE07
211E261C
01FDF91F
5312E5F3
C3EEEBD9
08E3132D
08F434FE
F119F833
EA311B03
06FD20EB
EFCC0FEF
E5E92706
19E6090A
1203E4E8
D13918DC
0E0B002B
F90F3829
1AE3E223
C414FB34
F5F8D8E1
30E113F5
10C6001A
FFE6E6D6
FF01D305
04196D31
1221381B
0DC8DAE6
D3DE1323
EE0F0136
4008D6EF
08D6D5E1
F5DCFC10
F5DFDAE3
1524FEFF
2525E6F2
EBE1D5D9
EEF4D016
18F8EDF5
08E4EBEE
D5FDDFFB
16F5F8F6
1708E8CA
F0DCEFE4
02F4D2DA
F518DB1C
F1F4EBEF
E9270516
D9CA1AF0
16D8EC14
0020F41C
F6F707F9
E018F015
E6EFE702
0A0C0CDA
26EBE7DD
E9F20315
FC0AE4EF
FB070B0D
240B15DD
FFF80B07
210DF5FB
0AFFFD00
E0E524E8
E4231725
01F0DBF0
0E0DD2EC
E61F12E2
1B012709
ECE0E521
0EE11F03
021604E4
0E1FF612
EBFE0C08
0B04F3E9
151A18DC
21EBDC07
1314E0F3
22E9191B
151A1119
152118E1
DBFCF426
23E9EFEB
DAEBFCF4
1BDDE812
20F80AF7
E322F8DB
E2F6F1F0
000620E2
DBD6D6EC
15E2D3F3
FDF9DED5
C2230C17
B30F2309
F313E5FC
5EF5FB10
200D16F7
F71B11F5
DC15DBF9
3CFC0925
1E1DC632
1046FA1D
1C1DC737
D6D6F224
1EE6F10A
F1F3D621
FB1904DF
1621E4E1
26450B07
0D141EFE
E7F60922
30041DCD
BB130AE2
13F7D650
0AF1DDFA
33210022
43EA0DDB
2308F6E5
24EC2429
5CEB0906
E1120ED2
2EFA29D3
12EB0020
0804D835
0802DDF0
F8161BF8
E3E00607
1B11F03C
2426FAE7
3F0A08E9
D9EFFC35
DB100707
0C180FE9
3A0C1702
14DD141B
3906FEE3
FBDA41E4
20040D29
E21305E9
A801E220
EF16CF0B
1A0B15FB
0BDBDFD3
D4D5D59A
1CEA21FE
04D8BF35
07EB3B03
38DC05DC
ED1FF935
CFF4DA13
E9111812
1C0F0223
E928F32D
A5170513
1A2713EC
F3211F1F
2416DFF5
3342E413
E7071121
2B0E1F2B
2E183D08
E1DEFF21
0808F716
E7DBE128
FDEA0815
F91FF8DA
F211EC28
2205FFEA
241A10FF
D00128E1
06F2FBE3
E1F7272A
0415DBE4
E2FEE00A
05EF0E23
19E4E80B
1CEB1E10
1A0EC1E7
081C09F9
4310FA07
FA1A09D1
2403FF10
28EBE819
4ACC1AE0
E5232408
FD1CE9F8
E80FF4EA
30EFF12D
F908F7CB
29EA11E5
10F3D805
F8EE0D0B
21CC0BFD
37EF0423
FD26F9FA
24F7EDF5
E5E835E3
271BE6CD
E335E4FD
40FDF9F6
E9230818
1425DE22
1737EEE8
0FEAF413
02EF481E
F627D8F7
C017BBE6
E259300D
E911FE13
C9171DF2
D92BF9F6
DF18E9E6
D8CDE006
F5E3E30A
E822D2DA
1DD7DFCF
ECDF10F0
10C9E509
E2EADA29
D0E7F2CA
0E1B12E3
F3D615E9
0B2207CD
1ADBFA06
0BDDEC0D
10EC2EED
090BCBC6
EE0A0DBC
D3E31119
FD0F1723
02E62607
F40606F1
03EF1BD8
DC2108FF
CAFEDFF9
402503F5
2DE0F1F1
0429E9F5
E7F901FD
DDCBE70A
EF0DEFFE
DCE203D3
F9F0F519
9E1EF817
1DE7E327
31F9F82E
2B2B3126
D61A14F4
EB38EF17
19F619EF
17DD0B02
D015F81D
0EF0E2EE
10FBF62C
F518F2FB
11073911
0E27ECEB
F901D0C7
EBE825FC
D600DB0B
CEFF1424
2208E701
FB3BD4E2
3417F9E1
00172207
2A1BE4D7
1D15FC08
D6EBD7FD
37EA0904
5F14F7CC
25E9E0C5
EA1A06DA
DE06D210
EBDF1AD3
EC11EF04
DADC10FF
07F70E19
FB0CD3D6
0B220F0B
E0DAE603
FDFFEDDC
F9210EEB
E909EDEF
170AEF07
06D703E8
FCE51DDB
26130E00
DA23F3D6
F8F7F80A
E012FFF1
1A25FD15
FCE626EC
19FAEC20
DCDD21FB
D21ED3E7
F70D16E5
EAF200F1
DEFEFEDA
0C19FF21
D70C0608
FC210708
060A4D1E
170120EB
DD9A1DE0
D7DB55DB
BAD40A16
1EECCBCA
E3BFEE0D
1420EE45
C011D2AC
0A0ACEE9
45033F24
0EDC2AF0
CB0617A8
EC34D929
322F2128
39041C1F
051CF400
3A1E121D
7941FA27
FBCBD3E0
EED40C1C
ED4E1823
172B223C
EBEB25E9
FD0147E8
34DC0EDC
C5134D2A
1EDAD3FD
11052045
E7E5DF24
FDECAFE4
E9F13407
C10CFA10
D202200F
57180DF1
080FE9E7
324DDDFB
F9EBF436
2F35E8D0
20FDE22A
2F440C03
18F6C62B
D202E440
08181CDE
30CC1C10
1A27F4F4
F21D1BDA
092EF3FD
FDFDECD7
E20BE7F4
141CE9EE
CD4607F0
2D130423
220B301A
E91A0A18
010CE333
E8EEE8F5
4AEEF72B
19F1EEE5
FF1DF9F8
2F142C45
0DDFE6E6
F619F034
0E10BD2B
4823FA0F
1EF9191F
2BE923EE
0CE5EEDD
F8E5DCFF
35130EDD
D9224B0F
1500D709
4B0932E7
0E270803
DC3ACDEE
FB2E3AF3
F41B3133
00001714
A8B4D6F4
29FE42FC
DA07F722
F0C428FF
F1FF08E5
D1E41E19
EEF81615
0C260AD7
43134A02
D41D3908
D524FE01
251B0613
1F171533
15E0E1E9
15291B0E
FF24D02F
EEF0D80A
1E143D1C
17DE19FE
FE15E6FC
190BFE1B
E00C07E0
DAE113F6
1C1BDB10
2620EE06
06EEFFED
E21EA31D
E41E2A16
0B08EC10
0FE71421
D80BF9FC
04153E19
D3010A29
0913F1CC
072EE3D3
0D1D2A1B
0A2BD025
310DFB02
F85C23F8
010708E1
CE27151C
19F743FF
0411F818
B728D4E9
D721F012
17FC01E6
1E1A12D5
E83D0CEC
E82C18CA
F7D9E632
E709DFEB
23EB28F7
FF2B1DE3
171FC8F6
E1DA08DA
20E0E22B
052FEAF0
14391EFB
F6E90DC6
3A030DFA
53F9DC28
FDFD2EEF
FCE807F4
FDF1FB08
F9161550
ED041FE9
FB0E28E2
3E1C23FC
F4FC2AF6
3A0304F7
25F33A4C
CB240203
F5161A17
3EDE0623
06DFFD04
1EDF0EF5
D701F0D6
24C8E8C8
ECD7F30E
F4000232
E1311AC6
371E23EE
1FDD41FA
EAF924F9
2CF7F11F
203AE107
1FE84128
ECD131FC
1301F912
FF061606
041BEEE2
11E9D8E7
D8DE180E
31D9F1E4
C218FB3D
1BE4E6F0
2B0E3024
F7E02A37
2A002FEB
121FFDE0
1CF9282C
2D322E0B
3906C428
F51812E7
F1311217
3519FDE6
200B21E0
15082F10
41D236E7
1AE913F4
1411FB08
310AE6E4
1B134721
E423EDF9
1ACDF75C
22371623
E7D703E5
D904222B
201415FA
04080FF6
F711F11C
E615FF0E
1BCECF05
DD1021F5
1B1901F5
F7D1D1F1
FBE043CD
F8FCB641
F5101BD6
F8DCFF27
3A1B1D9C
24F6E6C7
38DC1C1E
FA0BF900
2CE9F608
DDE5CDDD
0AEC1EE0
E4200E2B
57100937
DAE51BF5
F3240A01
D3292AF4
0FF82DE0
091BF818
DBD20A13
FDDD2B26
FEF0C726
10F529FF
13DE1EEC
081AE1DD
D4FFF200
0F14D4EA
2A0306E5
22EB1841
2FFC04D3
FA28D11D
D1070027
191B430D
26C1FEEB
F1E0F03D
DF1B1432
3000F105
041B00FA
12F3DBFF
DBE1D905
FDFEE404
CFEB03F2
EEF9F608
05D014E0
F903EE05
F4C9E2F9
1AD2E3E1
EE0702FE
251CEB11
E9EAD8CD
23F9FA17
1BCFE8DB
DD00E501
ECFAE510
F0FC04F1
C702DAE1
E7150BEB
14CEFE28
EEF5F4D3
E9E9C9E3
D3F6D126
DB2420F7
16201707
E20E0AFC
E3FCEFDB
ECFEEB1C
FA0CD0D1
F304120D
52C52A13
CF21F400
251AEAFD
CA1502EF
E1DF0B2D
BDEB1727
E0151EE0
121DFCFC
2AF21510
F105F202
E7F01D27
2F07F5F8
181816E1
1C001818
18CA06D6
1AF0BE2C
22FAF61C
B0E7E621
161837D9
DE1C0F11
181303D3
CB0F07E6
390DDAF6
0701CAD4
E508E118
EC27BDDC
340E272F
320FCC10
252118EE
EE001E2E
FE1BDFDF
05D7EFC1
E7EB320F
F3ECFCA0
2213B9F7
E1EF0DD8
FFEAE043
AAE422B7
C4FC13DF
18C5001C
E60240BC
2E0CEAC4
DD0F07FD
1F2C090D
DBEAF1F1
FA1D120D
0EEFF50E
D4520A07
DB010308
EEC0E609
0E26040C
1BD8CFD5
282E3903
31EE2AB8
29EB3D05
00D2C8EA
30F31DFF
F20B0A44
5A11EF1B
32E3E4D7
133B1BDC
1636ED0D
2006CAF3
BC13DBE2
F6F02345
20D44B14
F33830CC
2A440A35
EC02C109
0E2308FE
14F9EAF8
00C83C28
DE210407
E5FC4627
13E923DD
0D231303
0D17F626
F720F323
2316FC0B
3B17E8DA
E026DA0D
121A0CD1
0B17A619
F5DF1DFB
CB20C7E3
D50EFBEF
E41A3135
0F34F3AA
04DFDB08
E03713EE
3EF63A20
FFFDEDEA
0DFC1C0B
D1F10128
F0E5EE2D
DA24D933
243E22FF
11001607
D2230AD3
EB01D5F6
0C152D51
2EEBC7D9
FB11E40F
F3D6FBE7
3BC2361C
E713E441
FF03EFDE
A2FDFA0D
1127161D
DA2FEC01
16F215F2
B70FED1A
2A03321B
2414B81D
12F025E7
2520F800
21E5230B
FB08EC27
1A394432
EFF90C24
F409D3EE
D31CF7FB
4809D7F7
3B0916E3
FDF023F9
D0F020C8
09F60101
1ED6021E
3AC6430B
D8C6F1EB
2510DADA
0CE3EFDA
050A4BFE
A819D31B
D726C90E
FF07EFE7
33F528FA
12302206
DDF814E4
1C20FB18
3BD50F59
F30B000A
320D3E23
FDE2C819
10F325EF
3B24EBF9
17FAF4EA
EF3EF82E
E6E0D602
16C5F526
0234E0E1
F6252825
17E1EAF0
0C2D1C2A
F4F53705
2A2B19E1
D80AE423
07D71128
01FEE402
E8F95323
0FE2090F
F30140E5
E916F9E9
D23BBAF5
1A25EF28
04EE26F4
0E0F0F20
C1DDF52C
1239081C
0AE3ECE1
0CFFF1E6
14FACE32
13D2DE19
FAEFF506
422847D8
F602EAE4
1708EA08
3A0C2CE7
2BFCDC06
072BCE0B
F515FAEC
4913EC02
E415C2FA
A50BF8FE
DBD6CBDD
281B2835
F2EB0105
D2151418
1D3718DB
010BF4EA
27141003
EC2DBF20
DC1916E9
1920000D
F60D2EE7
DE262001
0ED3E50A
162EFB21
190C05DD
171F0E06
1EFC23FE
E4FEFB9C
00311905
151EEA30
FCE33410
02EA12E6
C2F3E9FC
E9150339
1F0ED62E
F11A0AD3
E01B1926
FA0DE6FB
11E6FFF9
DDF3E511
1C04D207
1EE809D6
ECEC23DF
091F16D9
F8DEEAE5
0416DF1A
1723FBEA
E9F0E611
EA10E216
E8EB111E
0EE90FDA
220ED5E8
FAEBECF1
08E703D7
DD280204
03EAFAE0
D7D7E9D9
181DE7D3
D5F1F625
F1E0D2E3
EA23E012
F2F4FB0B
1EFFEF04
FD16FEEE
1517EA05
DD245F0B
3D04F301
2312F203
171DD0F9
CE0309FA
0F03060C
C70E2933
1C10F6F1
41F5DFE9
D9F7E710
D8E13024
DCEF1E05
1A28040C
E900DE10
0D1DDDEF
F7D0FBC4
EEF5FD07
1B140508
EE23F1E8
1321EEFD
D93DE21C
1AC52AF4
022B0106
EEDA090B
1BEDE5D7
D1D618B9
224EC809
1DFB1CF7
A128F3F4
DD162918
DEDCDE16
1927320F
00E5F2E8
C7E320F6
300B183A
DA0305FC
F8022038
EE080BD9
1428F4FF
DC14B844
40332ED7
1BF9F22D
F705FD05
0AD60519
26FC101F
E34615F1
1827E9E0
F1450C24
4D0F1510
09E9E61F
1BF1FCFC
1C2800FB
0B02FA2E
EBF24C04
E81EFDEB
E90DC9DD
1B024321
0AD713EF
2AE006D7
F3FA0120
194BCE00
2DDB1BEB
C806F53E
F5F8A2DE
0226FE11
0E00F50C
4836DA2E
F8FFF001
F03813F2
37390929
EC2BEA27
011CD1EC
3CFBF455
ED231707
23DE281C
0EE2461B
EDED1F16
FCE82405
05E620FF
EB26C0FD
2E360011
1516F8C6
0CFAC7A7
EB0E4603
DB05D234
2FF3D10F
E8EA1BDF
F5EFFA21
FB18D5BE
07233EBA
FB410801
F73C37E3
04151923
FCDC2201
B4FB1613
1313C8DF
2B09372F
270DE612
13E9171F
1934491F
04E8C415
10082B1B
D9E9D3C3
0B0BE6D3
14F0F1F3
EFE51F20
1BF91123
1FED0BDC
F3F8DE27
F514BC26
1306FA0E
E52F1831
39F324D2
1927E0DD
06DFDAFE
E20C26EB
04BEE220
FBEF042E
CBF92122
1A04E843
C8DD15EA
F8043B0B
D721FCEB
12F023EE
CBF3F20B
01102209
E30A19F9
E73C1721
0E01F027
1AD19720
E922D521
F5F10FFA
07ED2311
242EF91A
06E04615
29F0F713
E6DCC715
0F2617E4
CADCE4EB
EB0D2C13
FA30D8F9
02151210
FBF80B2F
1A18D41E
450912ED
D4230035
E1BB9EE9
2C072216
17E113EE
00E424F1
DD14DD31
F1C7032D
D82B1B03
FB1A4029
39E7F136
262C171B
E51DE01C
23171ADA
DDF30D13
2EF33D05
D5F8E328
EB08CBD5
F60A0607
E2E14012
FFE40403
2937F720
F90ACEEF
26111B22
1E180D0C
EFFD30F4
E9E3FDED
1236F9CF
F3F01CF9
EFD64EDA
2BDACC29
1AEA0847
FB263B19
3127F5EE
522DF635
C82E26CB
2207C21E
CD09201A
0DFFFE0D
D5E9E1F6
27FC06DE
0C330817
26D5082C
EFEBE1B4
D8011FE2
12ECD81B
3AEB5122
1FEF01C3
24EBFE0C
1502111D
0915EA16
D5F005E3
E2F802BB
1C31EC03
3DDFEF19
F8DE0C22
27E42914
2033F9CE
EEE1F2C8
B90D25F9
DD040CC7
E5F1F1EF
F444250D
EE13E400
032E1488
1F102ADB
E6112DEC
FD30161B
FFF415F6
E11B2208
0006E2F5
03F113E5
20AEF421
251D101A
F61B0904
CC31EBF1
223235F2
E50016E5
D1FC31CC
E1F6D418
3308ECE4
E7F805FE
CB19E302
0823F2DF
26222D13
0206D802
06E1F2F6
2604272E
26FF002D
0FEFCAFF
17F714CF
F6E9F31B
0E0AE1F5
1EDAE0ED
FA34351A
15BECB1B
03F4E106
F9031528
EF05E311
1F07EBE5
3EFBF4D6
EC0EE8DD
0C45F0FE
0FD414F3
E72DF6F5
3BEA05EF
FA0CE926
EAE1F22D
E0FDDD47
032053DB
141BF824
131D0DF9
F5F40ABB
1CE120E6
E907DCF6
DAE2EB1D
15F6E80F
1B19F3F9
F809D9F7
ED1B34F0
0B290423
2BEE17EA
E5060DF2
07051A13
25E1EAF2
3442FEFD
EFD1F6F9
0000E6FA
ECCAF8E8
170BEEE4
071021DF
F0EAE4CA
1501DBE1
F404ECEB
0FD30B0D
E8E2F0E2
0B0EFFEF
0FF8F5FB
FCECCAEA
DCF4D4F3
E2F3F909
EC0EE4FF
E10EDDDE
09EBDB05
DD24D9DE
EA14F014
CE0F1AE9
D4041EF3
FB1FDBCB
E2FCF6FC
D2F5F002
E6D9FC01
02E3ED0D
15E6FBE4
130BDF05
E3F3DFFC
E516E618
10C2DB18
C7EC0511
350F0BDC
0F0E1DFF
EE020AEA
CE0AFFDD
EBE81EE5
2CD4F9F9
E21A09F9
01E8E615
180CED01
0B0704EC
0F04E402
D7D527DC
1AEBE5F9
00F029ED
140FDF05
1211F9D8
03E5F410
E5ED2303
FA06FB25
F9ED0DEC
2504140F
BA0EE2F4
DAF1DA0D
DBE8E909
FB100BE3
EEE5FCEA
0D17F508
18F33005
FFFC05FC
EAFBECD8
40D6EC0F
1AE924C0
2B1FEFD5
E5C8F0CA
E1D60C19
D128FC17
F0222411
09B80308
20DF16B6
2E080403
F61E0623
DE1FE10C
180FDF1E
17FE20DC
35D012E3
CB6204E4
EE061726
E7D4F506
480D1725
23E9D8EC
30F4F9FD
0AEF2719
1A0843E6
EA17F7DD
2F1DF3F3
082E1C3D
1909E307
DBD413EC
E5CC0CF0
171121CC
0FDE03FB
00F32502
EFEAF1D4
E4ECD612
1BDFE007
EEF21CC1
F41AE9CA
FC1BC9FE
FB17EEF7
CA08FB00
11F90EF3
06ECD8EE
10070A0B
101AFE18
0FF50D13
0A09D6DF
1DE4E61E
DD190CF9
0FD6E6E8
19F6060F
1701E2DF
19E7F30D
E7D80DF7
02E2F6EB
DB1B07DF
16FF0710
1DDDD016
DEF9FEDA
1B0CF107
1ED92316
DAEBE318
F6EBE91A
FC1CD4CE
D9FA1803
FE1001D9
E4E7E7F3
F011F3EE
03E6EE0A
F51C030D
F818DF05
26F003F9
DBF4DA26
FBE3EFDC
EB16D9D9
E7E5E7EC
19F30609
2A20EF01
13CC0711
DAF6EEE9
0AE6F21E
11E6E00D
101CD900
FBF4E909
0500D1EB
ED081E1C
0ACCF9CA
1DCF070D
FB3BFCDD
36292C07
2CE4E62B
DD04D7DD
E00DF70E
020C0220
F2E72B02
FA26EFB6
13FF1834
0723CBEC
031A2BF0
E30E2EF1
F8312C1B
E21CCC1E
29CD17E9
F8E638E4
2008130F
18291AF1
F512D0EA
2F27CFFD
3518EEED
0A142AF7
02223FDF
D3F2BF03
EAEC15FB
C3F810D8
2101F7DC
E603D0ED
C9002CD4
F008F631
F9DF10DB
08EFD924
13D2EFEC
0EE9FBF5
EAF5FBE8
07071BDA
1FC7FAFD
1EFBD717
16F1E203
01E1EEF4
F4E715E0
13E2CEEF
F01BD7E5
FBF001D8
1E0DFE0A
F7EFF3F9
EE10EC17
D2D7DD1A
28F306E7
D9EF0CD8
0817020E
D2F407ED
060110DC
05FFECFD
1CDCE008
E0F51907
0E00F702
D31107C5
DA14F916
D8F5D7CE
F115ECCF
0FE6131B
0CEC17E6
010ADBE2
2203F908
F3F01304
DAF4E310
000C0FF4
DAFF0105
FDD10017
17F708DA
E2E1E216
17DED51A
FEFC1910
E804FFE9
F8DC01E3
0C1EE7E2
01DFE903
01FD2219
F006E322
D9D6E6DE
E2DEF103
F21F15DD
FE040C22
DFE3FDFE
05F214F3
D8D8FB24
D01907F7
D4EA0F0A
F0FFC8FB
081CD312
C9ED2CD0
36F32934
0518E0E2
10E41ECB
F612F7FF
35FF0C16
0108D609
E0EB1532
2C283330
191CFC03
F22201A2
03F81E02
12FB36DF
2F0E0A0D
D900002E
1D0103D2
EE301D05
0117FCDF
DFF9E500
3E22D7D6
00051519
251E1CB4
E70E19EA
0008EE09
E21EFC3D
00FD3011
EA08F62B
F81033E7
FDECF3E0
DD252212
51F705FE
FBECEAF2
ECF11DE5
E8DC0127
ED07E6F2
F210F720
0B2BDCE9
EF3312E7
2FEBEEFE
F0FDDFEF
09FE2902
01F3C532
040C1B07
3AD64CED
12DE1712
FF10BFF6
DCFC25FA
331E0FE4
18130CD9
02191109
322512D6
1502340D
E303FC27
3F20C80F
D5E3CA01
DB2607FA
EF21F5F8
D8F1FC19
02282F20
ED17D826
F1F2F203
EB1E22DC
1C17D51A
D924DC18
E7CFEEDC
13D8FDE0
DAF21ADD
07F204FA
EDFB13DC
10F1E604
EB0B05DE
04D90C13
1DF50E19
0BD8DF0D
D7FE1604
DAFF071D
FFEA160C
1CDD10F6
FEFBCEF6
F2DB1027
E4ED19DC
E8E6D5FB
14F3F011
0B240EE9
3005DDEC
ED1F01EB
E5D8E1ED
E4FED70C
001413D9
EE36C3AC
C5E337FB
AF021401
26182AE8
0702E6EC
F83E03FD
FA2E0F25
020B1717
1B241937
11F2231E
DB4BCCD8
1205D0F2
DB1BE228
E9CDF51E
F4C848E2
E428E60F
10DCE3E7
E51EE7D5
E7D5E916
C9E2CE02
24F82619
BD360BE0
12ED10F6
25001DDC
F20DEDF6
F7F4BE43
F8D5E6FB
271F1E17
5FCFE3AE
D6FAF6F6
3B29FA02
FDE0FC06
2123F0FB
0A2EBF04
04230610
0E230331
2ADBF235
1D0E0ABF
E42DFC2E
FE0F2F19
D92A2104
DF26EAF2
5022343E
14EB3312
110B0520
FB1B21ED
F204CB0D
0027FBF8
D0CDD618
01E80FD7
22FDFAE2
32ED12ED
00251198
FB0105EE
DE1ED1E9
D615C1EC
FD25E8F9
F305F410
F1F922A9
050513DF
30F000D8
F5E6EAF0
ED30E613
F3ED2F1A
17061323
1AF63741
F8112CFB
19F4E813
FDBDE834
B8BFD7EA
BB0504EC
00DB1AF0
EA160EDC
F2050CEF
C743D5FB
351CD7FE
FBF6F943
E6D8F024
EAFD01DA
09F1E128
F52D1C2D
D11DF9F8
FDED20FD
3B23F422
09160EDD
CA0609C4
F6F31D10
0D121E01
CAD00BF5
02BCDB06
35D80937
F5302AEA
1E05EA25
F7FE14EE
F4F9F7DB
0FDDF8F0
0ECFE210
F1D50821
C7281FD6
F93BCF24
2C143521
26E6FEC7
E3FBEFDA
0A3E15E5
F8150105
FF330D25
E1E2F5D3
103BDFF2
0BF7F6DF
D90700ED
2BB0F512
2E2D1DFB
12F92A31
012AD9F8
E6EB31DF
212D05F7
FDE76D0B
F4FD01DA
F9EF26F5
22F9F310
32F6E9C9
FF1616ED
D42DD518
E314C6F0
41F7252B
13F6CF14
2FE22EE9
0D182DEE
FF2E0CF3
0309A731
0D3D2B19
0327BF28
FBDB0D50
232619E8
19F5FA26
12072606
1DE82EE9
193AF1F3
03C517E0
1310D021
08C3211A
D11C1EC5
F0EAF0E0
BDE81B24
131323C6
241BF822
E6F8E809
1EE0EF26
52EA1393
FD2B1ED4
23D12912
1F00E0EE
CCE120F2
F301E900
E3F017F4
E204E0E5
E90EC50C
F7ECFD43
03F1E3D5
F4E22DEF
34EB0302
F11E37FC
3DF7D73A
FE060DFA
FAF60F0F
190BFAE7
E915E20D
450DE3F2
D82702EF
1101DDFC
33030101
0020E932
E5FB03DB
1EF709DD
D22B49CF
4EF42ADF
E5EC0C0F
0C1200D6
152F3907
F535D9E8
2EF6243C
1412E305
34F6E221
0300EF0D
C815EAE0
1111E3D0
F7F9120F
00E50929
F40B1FF5
E32238DA
0CBAECF6
11DF24F3
1EDBD709
E114F1FB
04F113F0
EB0D1B2E
E5031FC5
09FBEB08
104BE4DF
F5F2E4F1
2E07FDCE
4805FC4A
0C20FEC6
27ED34E7
E7DC4D3B
10F90203
0E2433E8
0C25D60A
D5280E33
25DDEB08
052CEE0A
170FF4FF
F415F326
E72747F2
AD0D2236
DC0B111F
1EE01722
ED2E03C6
FD1AFF1D
F6DBCF18
0639C90E
0B0207E5
E1151DEB
1C08EAF1
30F719E1
F71F271D
1520D1EB
2012F804
23EE1021
FC38E201
E8EA01FA
27240634
EF123810
14D5E511
0D16FDD0
C2E2B615
E8EEEEDE
02241424
ECEFECF1
DFD717F9
09E618CD
E6FC0E22
F202EF16
E3E6F1EB
F1F7F70D
F4FA12E9
F103DCF8
10EF20E6
FEEB0D1B
0103FCD7
DBEE17DD
18E20B0A
DD231CF8
E3D204EF
D8091714
EE13D7DE
28000E11
E7F021D5
DE06E7E2
E9DE02ED
DCFCE9E8
DF01FED1
E6FB0E05
D912EEF5
001DD9CF
F9DD2207
071111E5
F416EEFD
E501EE06
E1E6DCD0
FC066C41
0DF4290B
F6E9E9D7
1DE7EF0B
EDEC071F
EDD0D3EF
E90AE222
0F301C2F
47E2FCDF
F9FFCCBA
09BB1E21
25FF214D
49E7EDCE
F04601DC
05DD2C12
F5C90CFC
DEF30832
16E0FB12
A20AF0EA
10E9FC16
D7FE0BF8
02D518DE
C107ED2E
301D21DA
3D241DFD
22EF22F9
441DBB05
3004FAD5
DD15E82B
FF08423E
F4062F19
EA170DFC
06FB12DD
46D9C413
D0FDFAB8
1A28EDFA
E2CB1124
E1D2DB2E
FAFA06E9
FC331205
2FC8092C
251926AF
3FEA3221
15F549F1
2A4817FE
0427DAEB
EDE720DB
32010AEC
063FD7F9
E20BF9FD
110EECE8
4FFD0142
2F2D25C0
0332F7EB
E4FE34FD
EDE62A06
E345FD17
0419FEF5
D8153719
10D9BC07
DDD2F503
2008E4D9
06DCED1C
DA282106
27FCE2DC
F2E0FB1A
F6F6EDE3
F3DF02FC
10DC16DA
FDEDFDE6
1BE60401
EFEC1EE8
F5E9F321
EEFDD615
DF01E4EA
ECD8F215
DBF2D6F4
DEDD1A20
1409ED03
F9182022
11FF1320
1BEBEFFD
EFDFFBF3
D3EBEDD8
08140905
0F1AF0FD
EF06D4EB
031C151D
1FFBD3FC
0B1CFA22
36F0FF26
E626E225
D5FED91A
F403F82D
36E918E4
1E243901
19CA3207
D40CEE03
0DE01333
2B17D11F
EEFC0F04
05E10E09
F11402EA
F9160AFC
D516FD09
E423F0F5
EA26EA06
01F4E6F2
E5E3E71B
1410F80A
F818E909
DAFAE6DA
101B041A
EBD7F719
04FA0EC9
E80EF501
2D23FAE6
2F0E2DE0
532A0ACC
26D1D804
04E53403
3F0819D3
FBE1EBF8
271E2DFB
1B15FD36
F211213F
E3D609F7
D60CE207
18F2DC22
FEF2F524
18250BE9
FA11F50A
D8E849B8
DF0BCE1D
F12DFA1D
1CF923E2
1BF5DC4B
2AEFD806
48E3F310
F6153111
202F0BF2
EAEC22DE
E8D63D5D
EEF1FF03
3720F0EB
DAE9FEDB
24240BF2
F9EEECD9
F8F5FD25
EBF1E621
C80C09CE
EA4621F6
1C9DF6D4
DBFC522B
DF0216E3
FBDCF7C0
03D7F6E0
EC19E053
AFFD08DE
DD2DBE0A
211AF5FA
1ADE4013
CDE527CD
1A1DBEF6
26D904F3
1E19E514
E00ED820
360DFAF9
F43CE813
0019F901
E102DF01
CD59FFE6
1A021309
320A1FFD
2EEA0FBC
150AFB07
DDC6DD22
4DF91FD9
21161059
0F05CE57
D9181913
F920E6FA
11DF18DC
09DDCE14
0DE3E4ED
DC17F61E
FBE0D316
2313DBFD
DAFAF803
DEF4E41E
FFF3100F
25EC1FF4
FB0F0607
16E3DFEE
0C07E308
FB1BF8DD
02EEE0DC
FDDA11DA
E614181A
F7F5DA1D
0214DFE3
2004080B
FF25E7E4
021BCEF3
DDFC2206
15FCD6E4
070EF801
00F608D6
08D50BCF
EBF4F4D6
FEEBCACE
EBF2EB14
CCCCE9EF
0FF408FF
F1FA0501
F0F2E51C
F2010F1D
04DDD903
D4E3E4DF
D6E601D8
F60810FF
E0F2FCFE
FC1D1210
06CCEBE9
E7FCFCFF
DAF0F801
EDFE16E5
C8E620EB
091A27E3
EAF0D41F
D1D81A00
15E51DE9
E2ECF32B
0727F5F3
F6EFFD0B
1717DD14
13FBC7DC
FF1E14FA
03D1DE11
20DA06F6
1AE416D5
231F0AEA
14F1F801
05E553ED
0916DE1A
FF1516F7
C9D73BF9
1D37E7DA
FFF617FE
EF10AC18
052E12E6
2301E605
F2E329E2
E721CB0A
17E03501
EC2DFDF0
2028C419
EC1607E6
47DFF719
07260C20
29ED1DF7
F615EB1F
24143310
040DE91C
19E10AE1
DD12B823
EB2CF2F9
06E8F214
2CF6FCC7
C5D32D0D
BCE83F46
CB050222
31C8DDAF
DA101012
B3FA1EE2
F8370D21
B5A41B10
FDD3F3C3
CDC8E99B
E7DF3730
19F71921
21E7D02B
FEF0F405
E5DCF210
0D1ADBFA
2B07C7F4
0AFF9EBB
090DFF13
482BE6F6
2C2423F6
002DE714
69060E34
F3E5352E
CC140D25
2E2903DB
F81EABC0
D6641B17
0A02D8E4
092A0915
DEEC21FE
1613EA2C
340511EA
00F50F0F
1E140AF5
0DFF07EA
08102525
20B529FA
FCF9F1DB
EF2B0B0E
D30FA0CD
F1F502E9
E0FA2AE0
3F1C0815
ED06E7E4
F1F24617
C015EA20
091A07F9
E3D8231E
A7EC162C
2C201621
FE000A30
34EC2A0D
050025E8
D7F00418
0BFB07CA
DD0A083A
DB0DEB02
120B0701
0B2A26C3
1FF51E0A
2C2AF64B
18E1E0FF
3040F241
E5E7B21F
E729161C
21DF2AF2
F11DF60D
E7160FFD
FCEC2D16
231A0FF0
CDF231DD
EC12D2E5
4A012535
13E9231E
1929C6EF
0316422E
FA0D0F0B
01E2EFE8
C2DDFCF6
FE133227
04D41DFB
1B0720BF
FF260FE4
F1E624F3
0A0AC0E9
0FF1F50A
1A264BE8
E8141BE6
D91DEB26
F6173706
EDE3D9F3
1A2C3DF0
192704FF
2901290E
F71D1DFF
EECBDCF0
FF121E27
2B12F202
163823EC
121FE60C
1CF30C23
1FF6ED2C
29090036
0C0D02DD
F1D843F9
E9F1FA38
03053627
EC19F6F0
BFE702F2
0EF0041A
15E914E4
C21D23C2
E9E702F7
DC24DEE2
28124A0C
E019DF0A
02B8DA1E
E5DA1313
18EE260E
39073622
16011A4C
FD020318
3237F001
220BFC0D
F9201B2F
03FE3CDF
BBE4FECE
1AF5E206
FBDF062A
36B629D2
EBD51F12
EFE5D4A9
32D2330F
EAC722E5
AB2AECE9
EC21271F
FE0C1BDE
FCBEE9DD
0DF515EC
32FD4427
E72AFFF6
33D1ED04
2BF1DBC7
FD19D5ED
ED18CA04
0EE6D84C
F80030FE
CA1DFED2
1532D32F
B7FEEB04
14DBFCEF
0F0ED7DA
0BEBFDDF
0C10EA05
F0FBDEF9
051709E0
D9E0E5DF
E31FDB0A
18040312
E4111DF0
EC14F0E3
F4F6D701
D7FC0AE2
EBDDDAF4
FC1C08F0
E7D3D823
0BE2E0F6
DCD9E5FC
F3EBE418
E80513E5
F907DB24
FDEF060E
E525D5D8
D4E7F2DD
FD271319
111AEEFC
DD0116F0
EE181FF6
0DD30119
26EDFEFA
D54F29C2
37FF31DB
25FC021E
E702FC16
C022EAF1
15F80D3C
CB0511F8
F22321DF
051EFB41
D7F91312
D2FAD01D
F8EA29F7
21F71ED3
070FFEED
2CDD1723
DFF4F4FF
2117D317
E9FAED06
F42D2A0F
F80714E5
144B08F0
0003E423
26E90510
2A041B10
DB21062A
F623E11C
FFEFB400
0EF7E135
F606DC18
E8CD0FF5
01264BEB
E4050CFB
EE15E4DE
EC1FD819
FE03F535
0C28F223
CF2B2BFB
1C1CE80C
30EDE80A
FF014311
E4E5C701
EBE91B2A
E226EDCD
F6F933FA
0438D813
1E20D8E9
F1DD2722
16172B29
17E8260F
1AECF3FC
F74DF516
39060601
2B03EED8
3BF31723
0513DA17
0E0A4BE3
2C281C05
0919F4F4
CDF9E337
00262424
D8ED140C
22EDD5D9
F00BF2F5
CE293C33
DEFF09F0
DB2C111C
F6F9FFD8
E90413D6
08D3FCF0
FBF3402B
DF080925
10E6F11D
081DDD12
F5F10BF2
001F0A25
0F0A05CB
F7FCEFE4
19FB01DB
4B1A061E
06EA1E04
0829EAD6
0A3FE230
2929190D
220D5F2B
FBE3C105
0726E103
18411CFA
09F80011
EE241422
E0D6150E
DCFFF502
19E50D0E
EB0EECD9
17EFEF24
0A0A02EC
DC1103E3
DB0FF9E8
D8D91FD5
EF0A04DF
DDECD8DF
02DF21EE
1A16FE14
E20BE817
02FD10D8
E1FA09E5
F709FEE4
1415F50F
DC10FD04
DC07ECE9
101216D8
F806EA1E
EB14E6D6
E526DF07
F528D6F7
DFFE1BDE
E1F6EEEC
F00AF80E
F3FE0B12
0123F61E
0BE81DF3
2B321608
2812FFEE
0C3924F7
3EEBBFF2
DDFA2009
EECA1B14
0504ED02
EF1418F2
1B1F13E9
0002D90A
08F22E27
1AE40BFA
4BF81FFF
EC38D91B
E4CC11FC
00EE170B
1AF72C2D
F4ED19E1
D7C91223
110BF1D6
0625F1E6
3CD1FFED
F50523D6
05EFD32A
06181C17
E7FD0D3B
CEF91421
05E40D24
FE0DF312
F51422E0
D11AD0EE
F5F9210D
DD20FEFC
1C21EF08
C403DF13
21D905FC
DC0C162E
EC17D701
2B0EFFF3
EC010DF3
CBFEDAE3
05003024
C5D3DB2E
E70A1710
28CC53E0
E8DCF4F0
E4FA1610
0EDF07F3
E5FB0DFD
0617DBF2
0D1302D6
0EDBE90D
F52710EC
26F6340E
05DA2031
FFF33919
F8C0B2F4
02EF0440
FEFDCB1C
E61AD1EA
FA1AA4E3
E3D0E8F3
E814DA0C
FF02D9E3
59DBFF12
F2FBA8F3
0843D40A
1BED1554
3FF3E6DB
F11A16F9
C024E4EF
EEDAF364
080D8012
E204110B
E3E9E602
04EA28DD
0FE22A22
C810051D
EF1D2CF5
EEF2DF09
F7E4FA26
AB0A08CB
C8EFD86E
26E133F6
43EB0D2B
E1F31DD2
04BE20E8
F11C0A2C
FFD8C338
FF3F0BDC
F8E03459
12DBF514
F2E0FE28
FFE2D9E6
22ECFADC
EADE02BF
23D9C8C6
1CECF03B
07EBEE04
38E83AF5
0EE32B0A
1ED7CEFE
1703CA05
DFFE3ADB
06F4E1F2
E7F9DAF5
02FFEABC
31F91E18
F62FE2F3
F6E021F1
11D1092F
10F9FDEB
FBE9FF0F
0B10FC0C
2AF43900
36E03512
2C1634F3
1503E80A
42422A40
242622EA
13000DFC
F9141CE3
F2DA13EB
1CE903FE
CBDB1542
F9141421
0DD5F403
D92A28CB
F938D2EA
DC03F034
2545ECFA
F716DC03
F12527E4
E010CAE5
05DD1021
FE0922EC
E9F50611
DB3A200E
21DFE1F1
F20FF819
02010706
D8FC1AE4
F9F13331
F4CFEE14
EB09EDD2
13E6BB0F
09FC15F4
1FE2162A
E70F2FC9
02E80F24
000022FC
00000153
FFFFFAD6
FFFFEB2C
000020B7
FFFFD1F7
00002338
000014DD
00001073
FFFFF70C
00000520
FFFFDBF4
00001045
FFFFFAB1
00003466
00001664
000023DF
00000A85
00002F2F
0000388E
000008EF
00000BEE
FFFFE753
000004CA
FFFFDFD3
00000A2C
00002E9F
000035BE
0000270E
FFFFF9B0
FFFFD495
00000F5C
00001DD6
FFFFFBB5
00002233
00001AFA
00001DC3
00002F3B
000001C7
FFFFE58D
FFFFDA04
FFFFD8EA
00001C7B
FFFFDF0F
FFFFD806
FFFFFA72
FFFFDD6E
FFFFE812
0000193B
0000180D
FFFFD456
0000162A
000037C1
FFFFE584
00002C7C
00001299
00002BE6
00001454
FFFFEA49
FFFFF3E3
0000339B
00001275
FFFFDB61
000010D2
FFFFFFFD
00002084
FFFFDC2F
FFFFD06F
00002C9C
FFFFFC2F
FFFFE9A0
FFFFEDEA
00000A29
00000EEA
FFFFEC2D
FFFFE07F
FFFFD6B5
000008ED
FFFFE2AB
FFFFF5D1
FFFFF53A
FFFFF93E
00000DDD
FFFFF78A
D4C03206
D4F91FE1
D5E3E2DA
ACAB1F23
F1F8250A
30DCD8E9
3BE12CED
250A0831
0AD1A9C5
C4FADC0F
1C31F6E8
D4FCE1F6
9AE2E9E9
D1BA4326
0814000B
2F092F04
F9F5DB29
0B2DD21E
210129C3
06072D13
FDD0F9DD
FFB3CAEB
F513EE02
33D52ED9
182EEF0F
39F4F1F5
39D5C2F4
C234BD3D
F9E2F6F2
0DD422C4
1706C907
111DFDEA
E0D4CFDA
D9D520A4
0821E7BC
00C7F90C
F8E9104F
E00F4BF4
FD251FBA
EE12CF1C
2B1EEEE4
B424712A
E4F9EA3A
DEF91729
BEFA163C
B7C917F1
F4B41838
