3F081B2C
25273900
FC3F0911
F00D181D
EEE6E324
CBED1733
110FCDAB
0EE5E400
3209E757
C01D2E50
C8DE48F4
D6190FA3
16F0C9DE
29402257
50364211
C8D2E70E
8CCDEAD9
F609DEAD
2B170B1C
F10AFE27
4FE416E3
00150BEF
18EF3A34
CF3C05D7
FA00F91B
ADDEF525
04251E1C
1D0C382B
E2DB3F24
DBE53620
F5A6BACB
D4E4C61C
9F91DD0D
D9A38191
D1FDD2E3
F8FCE336
5D0E3B4B
00003543
0000002E
00000017
00000007
00000038
0000000C
00000008
DF0B0C04
0AE511DE
01F70720
E400EA0A
0CDEEF03
17E801EA
0806F3F8
E3E70F08
F2FBE2E8
E9E3FBE6
EDEE0A09
0E1D2119
1FE82205
EDCBA900
E6363931
304318F0
04F20916
FD0F100F
FD08EEEE
FB103B22
3D3AFA0D
170CDE0A
E2EA271A
EB25EED0
DE00E8F7
2C131901
090DFDEF
DEDCFD27
FD211303
FD01EAFB
F9F2DCFE
DCEFDBF5
C3DC2009
2607C4D9
BAB3CF05
F524320E
123A18EB
D2E90119
D6F4FDFD
02F1E2E8
DAFFE8EC
1C07FAEB
061B1902
09251D26
E3F51B0D
FC1FFAD5
E9EEC8DE
DF020AFA
FD1B19CC
1816090F
F5F3E109
0FC4F10F
F0EC1911
0ED9E2D7
F7D81101
372D2D16
FAF2F90E
0C06F812
02E2E00C
F81D1821
23320F2F
0F0D13F9
0201EB15
07FAED0A
DF13F3F9
0A17F920
3604F6EC
10E92436
10213E43
13F1CC02
F4CB0615
CFD00EED
B7CBF1F8
E6111B04
F5E2D9B3
F5CADB11
EBF7FED7
F2E3F2E2
1E080103
01D7F1EE
F5E8120E
D9032503
DDE8EB01
C5182426
F3FF2C21
FF001B20
E4030A23
3E0CED0D
02C3BA11
D6171737
FE24E8C5
0FF4F418
2B311203
1408FAF8
F7F80C07
07F7EC0B
060EF315
0C03F3FD
F2FBF7ED
1B16F5FB
F5172417
26011D10
30231DF8
2FF9F51B
002F2805
FE19033D
F2F4F411
15F7340A
19E9F4EF
B4B2CAEF
D9C4E4F5
DEABB6DC
ED0DF51C
051BF3FC
3317E2F5
FDC6D802
C6EADD3A
05F02D15
DC26FE03
12E4DFE1
0DEFF60C
DCF92730
0A044B2F
10303B04
4118020A
EE1B0830
191AEEEB
0CF5C9F7
16E2B9E8
EE080AF2
EEF92727
0BFFF515
D802112F
E2332802
FA2A02CF
01F6E7F0
17E4F316
16F6FF0B
EFE51E28
C3FD0300
0D09FC11
1F240CE4
EBFFDD07
3213FA17
12D8E90B
CBD3B9FD
E1EAFAD8
FB04C5DF
FCD5FBE2
C3DF1E28
0ED6F8C8
D4CFEB19
E4FA0919
0C1005F1
0B082605
0D2C392A
C9E0E5FC
B8FCFAFF
21FDD3CF
F9FAFB07
F51A1012
2C392DFA
F3E8F3E8
1EE6E1FE
EC1B36F0
E1BACDF4
26DBEB11
0A28FF2A
F6041217
0F1003D7
FFFBE602
FFF809E3
2608DFFA
2BEB0503
E3E4F003
FE08F4D2
F2F5CC04
D9CAF5F2
17E0CFDC
07FC0F18
05043838
C4C6D209
200BE7C4
1B090C03
1F331528
2534091E
E6FE0923
D4DDF5C5
FF1621DD
1E1DCCDC
0AE8C9E9
F8DFE72E
1FFA1C2D
F4271C27
1C22E8E7
04D5FA02
E7EE1B35
EE093328
0F183444
230B4829
D8E708F9
0C1309DB
0723C6AF
5ED7A6F7
FDD4B7D9
07E3B8D5
0029FCF0
ED0004F9
10F72E28
DE2D24D5
15F707F9
111A09E3
0F040EEE
EDE3E223
E4F90419
F7FA0A0F
F3F81BD9
30E1DDE9
290FDCF5
0F1608FF
F111F615
FEEEEFE3
1920EDC9
2DD7B5C2
19C5A1FD
CDEC1300
E107F4D9
111203FB
260118F6
0F131A11
DF0307FB
FF12E3DE
C7F3F703
FB0EEEDB
150421F9
011300EB
D5DF0200
F011E10E
FDE62C23
11E3E810
1A26181E
2818E918
2119F407
02333022
CCFEE6EC
150E23F5
24281F04
161C0E18
0109FB02
0004FBEA
E8F4ECFC
17320C06
0EF3F9F7
0821321D
FC25F61A
F9EF2B20
FDEC01FB
0E1CEAF0
FDFA22F6
EEF1DDE6
D4E9D4D8
C3C3BBE5
29EEDCE5
01D9F306
F1DD031E
F6F0E8EB
1C05EFD5
0DF1DFCD
45F0082D
13211931
262E1E14
100FD51A
E7D331F9
CC343723
28230C12
0D0D07E4
27EFA905
B7C6F808
F0F0FF1C
12FBFBD8
1E102D17
F1DE0E06
FD06FBD5
0013F6CC
EDD5E21E
E9FB2B24
33311903
00DBD5F2
D8011408
0DEEF6CE
E9B60011
2031240C
040BEDDB
0B121924
08F61E33
EEF9F7D3
FBBCD8FC
928CFD07
D4EC2C14
190700AD
01F6FAEA
E2F302FE
1C34F6F2
EB081D23
E60BEA0B
F0FBE311
EB0EFBFC
EA04F7F3
090CE3FE
F91AFCF2
E0C4C7D6
F1181C00
DDD11C0A
C8EF0AE1
CEEEF3C4
3B191538
300DEE4B
D1C42B3A
FBD3CEEA
ECDEFD0A
1000F629
23FF1BFA
CFD913FE
E3F809F8
E5DCDBEA
FADAD5DF
261A13EF
FDE72217
CB1C3B35
06FB09E3
F4DAD8DE
E80710F0
10F31709
BB212727
E1E6EAD1
1B13F9DE
1F02E905
000FF00D
E4CFD2E3
1E000A04
1B0C05D7
E20B0AFC
12EFDE03
F0F704FB
F40CFFEF
261CEAED
25FDE81F
F3EEF803
20F6E3F8
16EEFADD
45151B28
120119F2
C7E81825
D91905DF
0BF203BD
180DFDD7
DDF1E32A
FE09F918
18231C13
04F11219
04F6140B
2A0303F3
0720E105
0A2C0F0C
0700171E
F8FC25FD
F702FC22
F006301D
18141023
38371C1B
FF0C2002
D0F7E7DB
A9E9AFA3
ACECE281
01FBC7B8
E5F0FDD9
D8E3F4E6
18F4FC0F
120EEB00
EE221C27
0F00F319
F412FD08
0008E0E3
D3F4F4CA
ECF5F3F9
DDD2F7EA
E4E1FAD8
08FD09F0
28CC2638
391E2727
06DCFF2E
3843360D
FB020B1D
0004131A
12EFE0FC
E5ED1905
232504E2
1DFFFF15
E4131513
D8EC06F9
F31B2623
1C11140D
430006F6
38EF1915
133A1E18
D9FA0102
EEE5F4F3
0EF1E508
F8F72F13
16FFD9F6
02EFD8D1
140C1FF3
0CFCDD09
DEF1ECFE
211304DA
301EFC09
FBF4EB15
E0E4DCDB
FDFFE0DC
F7F81417
2EF2F4D1
EFDBCE11
DACBE521
05DCD6FC
FB09FBFF
FF16F5F2
D8B7FAE4
0103F9FA
FC391A16
05325A47
D4E91AD6
E90AF8FC
030D1713
07F904FF
EDF02A24
CFD6F2F5
E4F1D304
2018E7E8
1CF1DF0A
3329EA20
4F432D08
1616CD1F
EDCD0BED
FEF3F9FA
1417E9D1
E218DCEE
DAEEEAD7
38F0D5AF
2EE12F58
EF1E1F27
0D140C28
20170E09
D9F50220
F7D4DED6
C7C1DBC5
DC07EE07
1D2D27F2
DA1A4744
D22040FD
DDD4E4D0
BEEADCFC
F20F02F2
10081201
4311F103
29FA0A24
26163F19
1908E9EF
DB049DD5
1E15E3DB
05E714EE
DBE7D703
BFC4CFEC
D6E6B8BD
E304D5C7
F714F10D
EFFE1909
1D182813
E1E21E34
D5BFF6F2
D9BADADB
04ECDCE0
0DF407EB
04B30F13
1700091F
2841433C
3B3F2649
FF2E3E19
DF074411
DAF5EDDA
FFF70C03
FCFAD504
DFFFFC01
150ED7CB
E018F9F1
EDE80615
11FC08F9
FBF6E311
E003D7D5
D6DAEDD9
051302F9
F6081713
16FA03FA
22063532
3F5B312B
E6D9D516
E0221924
08F505E2
F5020A01
F1F504F1
E4D5FCF2
DC101C1D
2F1CEBE6
F006F22A
14261A12
453E001E
F7090F19
2F28FF0E
F00FE5EE
FAF72D0A
100200F8
02FDFFEA
153124F1
21FCD92A
F92C3E0A
17DBDFE8
D0F8F6FA
C9F1FDED
DE0C0F15
E60612E6
FD3021E3
F3F815FE
E24105F6
1B2A17FA
253733BF
26341BF4
390E1700
181FE8FC
1115D8D9
F3D21E39
E7A6BEBC
19A7C1DE
16B9EE3E
0FE2130E
ECF7E0E7
1A10E7C4
1F00C4FD
FAE0D407
14DFD60B
F9E6DB0C
D0E0030E
181BEAF5
B0E7EED5
D4E60306
BFE2021F
0EEA1E04
21ED04DF
21DBEA09
11F6F638
04F4303E
CCDE162C
ADC4293E
E3EA13ED
12D3F5EF
ECE3031F
202606FF
F20B1FD5
2411DFEB
EAE8EA1A
FED7191E
18F302FB
D7171BD8
050D0AF2
F5DD21F9
CB1DF6EB
141FF201
0D07ECEF
38F402FD
BADC1E2F
DC221BE5
E12827EF
D9010BE8
262609EB
FA1C1104
0AF41710
D7F3FAF5
0900F502
052109F9
F32ED4EF
13231C13
2E08EB05
F2FEFC03
13E315F0
F1F9D6F0
EED7E427
0C090910
DFEFFA0E
C1CDEDD6
BDDB001B
C9E10F0C
FF16FFD8
FFFFFFEE
0000000A
00000014
FFFFFFF2
00000010
00000026
FFFFFFE7
00000010
00000011
FFFFFFF4
FFFFFFEB
00000007
00000017
FFFFFFF2
FFFFFFF7
FFFFFFEC
00F105FE
0B0F15E7
F2F3F5EA
000BF7E8
11FD0B08
F70E0915
0210F2F5
F3F3FDEB
E614E9F0
F5FF12EF
03F0ED02
10010012
06030102
15F80500
EE11E7EF
080AEB03
0E0EF0F1
F4F802FF
FCF3EF03
FF09F5FA
1009E907
E90BE50E
080BF608
0EE8F8ED
E70B03EB
00E8EB09
F3EEFFFE
FB0FFF07
0417FE0F
FAEFFFE6
F5F5E6FF
F0FBFAF8
FC10F005
09FD17F3
0D08E8FD
16F3EB01
FEF102F7
10FDFAF8
ECFF130E
F4EBEEE7
E8090DF3
0AF0F806
0AF1F3FD
01100EF7
13040A03
FEFDEEF0
01020EED
E8FCE914
F61213E8
E9F8EEF6
F2EEE70D
F80914FF
04EC07E7
FD00EC0E
0E0D080A
0A12EA15
11FBEE03
E5F8F902
03FD12F8
E8E9FB06
FFFA01FF
FEE804EE
14E60812
1106080F
050902F9
F1020CFE
E60A1121
1F0DFE0B
1310FC0D
EA000804
0C09FEF6
E6E703FB
EDFA201F
1D130A16
0302FDE5
1FF3D9FD
1715DD08
0511FEE4
14FFE302
172706DF
E1130D12
2E09CEBD
E9E4EAE9
021A201E
1B390807
0C1006C1
24F4D0DA
34031E02
F5FA1719
0200F011
1D0EF9EB
01E9EB07
E5FE08EF
E101E0C3
0CDECFDC
D7CFD6E6
F2040332
EF0D1D20
F5071A27
CED70527
11EFF911
E9F814E6
2CF612EE
251CF4D3
F40D0F2F
040E0FEB
FC0C0C09
DCEF0DFA
D7140F2F
0C0F1435
E4114417
F0042521
F7F52125
01FAF92C
06EAF925
D5DE0235
E9F12629
2D110311
C9071731
E5FC0A12
F8DEF7E4
E21F0FEB
F5F9F0EA
F924FBE7
F60F0BE1
DDF20301
DCFDFEF4
1307080A
EDEDBEE3
E2DEC5BB
EE27090C
E8150321
E5D8FA13
07020309
18FC0EF3
0928FC02
F9E0E020
26EDEF13
0E1D17EB
1615E5F9
0005EE26
00E2F9F3
1628FA10
E4021FF9
000714DF
270F0ED7
FBF9F1C1
00F9F1D5
18FE1627
03DED81D
1CF7E3EF
10F41614
DADDD900
08141000
FD231210
F7070BF5
F2FB002A
11F92F23
16E1F9FB
0708EBE2
0EF913EE
FC1BEDC7
040425FD
E5160A08
FEE81316
1AF7130E
13241AFB
FC0C19DA
D1C9C4CC
4B26FFFB
28F51BEA
050CF601
1F2208D6
EDF71AC5
EBFF0DFE
0A07EB0F
382ADAF0
16FBFDDD
01281902
FBFEE4FA
37F8F00B
0F17EEFF
0C143102
EAF9FFD8
41272223
17250C01
FE1E02F0
F90502EB
101FED43
EEE5E419
0215F6F4
F81324F0
01D9FE1C
04FFF6DD
2FF2DAD0
FCFA0909
22021CE5
09FF1D1C
D3031000
F014F908
EEC9EAF8
C2D0FA06
FFD51308
E0CDE9F0
15F019FF
0DF61A09
33450526
C5FF2422
3A25CEBA
150B3F0F
E3F8E5C0
FCE8F50A
F8F12611
19083200
10212641
F0122C25
18F6DEE3
0A11F2D8
F60EEB13
DD07F309
1011091A
F100E612
EB1BEEF1
0E25FEDB
F5EDBDEA
4B4402D6
D6E5F7FF
DBE3DAC6
0C09CEDE
FB20EE07
07180C0D
08E710EE
080CE7D6
06FED7D1
A8C5ECF1
EEEAF6E0
0C04B3D2
0F07DBE1
E2D1EC0B
E0E3F9E9
6624F3F2
F00114E8
DD2415F5
001CF919
17F9ACDE
D804E8CF
D5DDB8D2
F5E9E5D8
342D10CF
11E43DE5
1DF2140A
F6091102
0B19C09F
010921E7
1F2610EF
EB05F3DC
F2F4EFFB
1223000B
0402E308
08F8F7EB
09E7F0EF
EEF50310
15F1F6EE
1B2A3216
06F4F9F6
DBF4031C
E901010B
12150315
B8F0FA13
E1F8F213
E6211104
D4001FEA
F70A01FA
CFEC290F
1F10F606
2A350914
B7B6003D
02F4EE23
071D181E
E0E606F2
0EFCFA0A
0A01E9F3
DEFFE2F5
270226FF
0C0B2D36
F6FF2134
F11EF0FC
23252C07
2722FFFF
0F03F607
05E6FEFD
2BF7FFF6
E2190708
0B02E80C
E5040DEB
E5E20F08
00F311F3
D5E5DBFA
F2CBF1DF
190E1D24
2B0519EE
1AE2E3FC
04C6E70B
1E15E7E2
54282BFE
1D1B2408
DB0E071D
100BFCEE
1601EECA
EE0011F7
01F0ECED
0811FBFB
F7033D14
FCC5E6F9
FF07F200
1709F819
142D2114
FF0B1E24
F0F1E30A
FDE801E6
09E4F922
0B08070F
181705D0
18ECFCF8
F8EDF50D
2109F30A
FB26D20A
F1F1EBD7
03DAD0D3
E5F6CC05
D3F70AF5
F71BE7ED
BEE9F101
C2EBE02E
2209EF13
E9E804E6
2B22190C
F72326FB
FBECEF1A
DC14DB03
BAD6E234
FBEADC20
0D2CF7FF
FFF8EE06
000813FB
0013E5F0
F2D7E0F8
0C0F13F5
07C82021
0AEA2A01
F0DD06FF
E3FE13D3
EC141F07
2F131623
1302DA0F
201E160E
F5F9130D
08F40CE5
FFF0040A
0F12FBEB
F2FDF201
0AFA0ACD
1DF4DB11
ED12FBE4
F40C06EF
01EDF00C
02D7F212
06E8EC05
443622E2
27160309
F2E80C20
1E10FC0C
22230516
26ED07FA
F0FFFAEF
0A1FF2F8
2521E5E9
D10205E7
DA0315F5
1B090C01
0FE70A14
0606222F
080305F7
1AFB0AF8
210C2122
2032EB06
21FED5CA
F4F3DCE7
0304EC02
F8E5E312
F018F5ED
F8123600
F6EFE700
E3070EF4
190BF80E
E0041617
E9F4FF36
FB11F733
E513F01A
C7BAEF13
2A0BFAEE
D4D72229
F5E0F02A
301BEEDD
D8D30727
FF0D1926
DD1BFE18
B9EE1027
F0FD1B0E
FCF20EF8
E1F8E607
FB2101F5
0F100F00
09EFECFF
010B0FE3
EF1634F5
13111417
07EAEFF5
E5E4DE0E
1D140602
E5000DE8
FB0A0CE7
EBDF25FF
E9FB2010
F8011CF1
E7EDE108
DDC901EE
1F0A0C04
E80AF008
03DE01ED
F2ED010E
1A1219F0
272024E1
16100412
20D0F819
3D1FFCF7
0DFDF7FC
0FE70EF8
15EFEDE9
222720D1
EF111509
FCFA16F5
E122F729
23110A27
FD032C05
F4140618
0A0C0FFF
E5F0FFFD
1618FAEE
F91517F3
FCF014F4
F3ECEBF1
F608080D
F0FDFCFD
EDF4F714
ECE904FF
09E805EB
1310F015
EA0FEFF9
E7E7E60A
FC02FDE8
060111FE
080CF4F0
0200EFFC
09FA0F0B
081AEE05
13FE0604
FEF00CEF
01F3150C
09F2E9ED
F10BEFED
150C0AFB
0906F2E6
EFE90809
E5E6E807
01E902F9
E9EAEA02
0B05E7EA
FEFB0EED
120113E5
F1EDFFF8
FEF809F1
E60D00EA
030D02F0
F30AEFFF
010BEDE4
F0FBFC14
F8FFFEFA
04E6E4F4
12EDE90F
FBF4FDF5
0F0D03E7
FBF9FDF9
F408EFE4
FAEE0CE4
060FF1EF
EDF0E80A
FDEEF6E9
FBF9F2F9
F8FCFAEA
06F2ECEA
081312FF
08150EE8
12F21415
1509F9EA
E50002EF
F3FC0811
09EBFDF0
12EE0412
1113EFFB
FAFF1507
E710030C
0BEED5E1
04FEE8D1
EA1D0FFE
D60A0F09
05ECF306
E82C1104
F0F21312
D80B062B
E721100B
182A04FB
0A291C01
FC210103
DE070CEF
1D051EED
43F403FE
3A22EE1D
F9E819EA
1A0DEAC2
D7FF0FB4
FAFDF5CA
FB0CF2E6
0E0706FE
2802EE03
1B0F0E13
F2061106
F702150C
ED250B24
FBFA0E1A
FD00FB07
03FD212B
0BFF1E1D
DE081932
0DF90BD6
E6D723CE
F0D70310
FAE40D0D
0712190A
1915162C
2513120A
F811F9F1
FE0CFCFA
1821EAF0
11F70FF0
EE012313
2002F90A
020D09D5
F5171BF4
EA29230E
E7E103E9
0AE3FDB5
0CEAF1C8
D9E1ECE8
2BFF2FCE
FB15F9F7
E2002506
F413080E
D7F93209
EBF7FC28
33F523D7
C11BF206
E9121F35
01FC2503
0713EF10
E2FE0D02
F406DB15
3A07F2F3
190EEFD7
0EFAE2F8
161BF428
0AEBE322
1CFDDBDD
F412020E
1EFAE204
D705DAF8
EAF1E6DC
DE04FCFC
ECBEEF3B
E40AC837
29FEE62F
E9FCEF0F
361810EE
E604271E
05EBEDEA
0F1D00E9
DEADF24D
ED06DA44
23060D0F
19F91323
FE10F217
20ED070B
FBDAE9EE
F605ECE5
DAF84520
F206181F
F30B1DEC
D7F120DD
253D05CF
36FBF201
EDEF0418
01F3E9E2
2BFE28F1
1A111B05
E3D2F6F6
1DF2F3EA
191A0AF4
0D0BE4E0
01D0B8ED
0A0B1003
0E1F07E6
05E2E702
E3CEFA02
FFF4D0EB
464425D0
46170903
0CED1225
19E91907
493A03F8
30011AF2
F7DE04FD
EF0C18F2
4F01F20A
DA05FBFB
DDF61D13
1E1205FE
E2ED18F0
01262F16
1DF4F716
0CE8E6ED
E50DE301
FBFBF90D
F4E50F09
050C0403
0EDC0401
DFDCDDFD
E5EDF6FB
F60CFAF5
E6DEF5E1
0EDE03E9
DF08FA05
13E504F7
EBFF090A
E4E9EB01
0A08FDF5
F8E6E7E8
DC090E03
F013E7F4
EFEE03F6
F90CDF13
16E8F4EE
ECF8FF01
EBDDFAE0
E6EEF804
DEEAF705
09E4F2E1
ED0EDEF1
DFF605E4
DC09010A
E812F0EB
0105ECF7
F7E603ED
F3F6EEEC
E1E5EEEB
FCFB0502
E2FDEC0B
F5060B07
E3E0FDEF
E8F7FC0E
F9FEF7EF
F7030508
F70CED12
F6F90CE0
FD10FD13
01E1F8EB
05F3FAE8
EBF8FDFF
0BFDEC01
04F7FEFA
FFDDE70F
0A02E814
EDE5FF10
E2E7F20F
0EED010D
04EB07ED
05F1EB0C
DFFF020B
0A020DFB
ECF0E7E0
0C0DECEC
01080209
05E503FD
F3FEEC00
DFE0F40C
F6272620
F209FF18
FE040C0A
01FD0BF7
14F6031B
28120FDA
0A060BE6
FEEBD6C5
140308E2
FF0F16F0
FCEC1AFF
D8E4181F
501709E2
152519E0
FC04FFEF
EB0928F8
1011FA10
F422FE13
23050216
D7CADDF8
17090711
21031BD9
DFED1BFE
DE160820
0108F305
0A060A15
26FC120B
12E405E0
060BFB0F
0B0904FE
F7F4DECD
FA02E0FC
FF0D13EE
FC041E19
390B1700
0D02DDF1
09F2F1FC
F6FB031C
1220F2EC
0D032D00
F4040522
F2F30AFF
20FEF1F4
F0F4CCBE
FCFDFD1B
0317FA27
FC1FEF04
FDDCECDD
D5E9EE2D
FEEBF310
16041115
21D4E1F1
C2E4233B
D902FF19
0B0DD9F3
01E9F6F7
F00C08F5
FE3EEC0E
F9F2F701
EDE40912
F8020612
0E0703E4
1D1A0C1C
26291609
181EFFEB
2422EADB
FA1CF0EA
F6DB00FD
F82B0005
FC0EFF26
E9FB0115
E3F8E6F8
DF0AE402
D5070416
DD15F816
C424FD07
C3CFF001
23071B02
0B2B0D23
F602FEFF
1D0D1AED
EFE20DCA
F10F01D9
F412140F
C1E0EB0B
0BFA0317
0A30FB02
02141521
200D17F1
FA06FCF0
09FA0F19
DCFBFA00
28EF0F02
FE10FB36
DBED143F
FBD7030E
0B0616D5
0CF2E6D5
D4D4F11A
F20317FA
25272D08
F3F8F4FB
16E20508
E405E9EC
101C12F3
EB11DED7
E1EDE6FA
E6F70FF4
2920F5DF
F5F8ECDD
F10A0CF6
F10DED19
3A2211DE
090BF4DC
D70E09F0
1C29F106
2D22FBD8
F1E409DA
C0BE0A23
EC0A1C16
E4F50BEA
D8FD1F0B
0110FFED
2B0D010E
FAFF1CEF
F7002423
F6E5E611
05F60907
02052804
0E1F1D04
F9FDE9E5
010202E0
EAFA12F5
06FFD4E7
0712DAEC
F0140E04
F800081D
05F6FCFC
F701FDE9
F31101F5
00DFF4F2
122B072B
081EF521
05FA0F06
FE122305
F9E3DCD0
DFDCBEBF
181D19DD
E03618F6
1201F40A
1CFF18F8
0211F00F
1B101A22
F8EAE611
F501E701
0307FAE9
2D16DDDC
FE0DF0D1
FB0FF3F2
F22CF81E
F308FC26
F6FCD8F5
E5DFF010
0A11F9E2
15FE15F8
0F04F62C
F7EE0D02
01180001
DB102C33
E2E1FEF5
DAD609E1
241AF8E6
CDEF1920
F1F6F007
0CF61EFC
11F1F1D4
B1D8251A
CBC5EF14
F307EBE8
1CCEDAF3
C7041736
E5E4DD02
EB10F3E4
080507EF
DDF72B1B
CBE41123
13EEE413
4214F112
12FCEE24
05090318
F30200E4
FF10FD11
03D7D8FD
F10CF404
F9141225
E50308FD
EC0A06E8
FA011B1F
CD0308EC
FCFD09F0
29FDF620
2C070D0A
0DF41312
F3080701
05F6FD07
2F170CFF
FC133011
CD1E2C0C
08DBD8D1
1CF0FED0
EBEF15E4
E5CFF5CC
14F40511
01051D1A
0013112F
E90F191F
13F6EAF1
0C1201E7
011D1EFA
E3FF02EE
F80F3403
112D2C4C
13F71A17
1D233814
ECF4E801
05D8E8D2
FC110402
F60ED9C1
0C08FA18
18031F16
010AF4F5
E60515F3
07EFE208
2F0412F3
FF1CE8F0
FCECF0DD
3007FEDF
F20FECAC
0EFE05D7
FC0DE302
EAEFBBC1
04F4F0CE
0E15E8CB
1717E3D3
1DF70EE9
BBF4DBEE
FAE302E8
E3FB1CEB
401F0D0F
2D1B120F
0AFFF907
E8EAFF16
EC061C25
F9F40D15
2307230E
FE0712FD
FD0303F4
090309F5
2003E7F7
0305F701
FF1008ED
F6F206E5
00E2EFF5
F1F1F717
EAE205F3
001311DD
08DFE206
EBE90102
D4E2EAF2
FFE812E7
10F4EB01
FCF0DBF8
0704F1EA
E3E90EF8
EB0A1511
19FF1BEE
01F4E8E3
EEFC07E3
F2EBEFE7
14E6E7FB
F5FAED0C
1DEDECEF
13F006F2
E4040913
F7F31AFB
0903FC03
E9EEF902
D9F81611
02E21810
171D0FEA
19FE0A04
06F9F1F9
07FFEBFA
00FB00EC
E3EF04FA
FE0B010B
F6FBEB13
01F400E4
10F40BE4
F9F90E01
F6D8F7FF
0DFAECFC
2417F108
EFF3DC08
F7F3FAF9
0A00F2EC
1FFF09E3
26050909
25130DF8
F2E9F8F0
F4FB010F
EF07E90D
EBEE06F8
0903E800
0AFE03EB
FCF0FFF2
E7FA0BF7
D8EE0DF9
EDF6E601
E2EDE008
161317EB
12EFF6D5
EF0A1AED
1427EBF0
E4170702
021D0614
0AF40C2E
52F6F221
C9041207
F527FA0C
D803FF23
D32009EE
070406FC
3F1616C4
030A15DC
EADE0302
E9EAF613
1CEAFADF
D9E5F7E6
38E80B11
0CEB07E4
2622EEF4
020B121D
F4E50802
F3F1F914
F515EBF0
0F1E07F4
FDF10913
071006CB
09EEF2EF
E4D801FF
14F7FDFA
EBFFFDF5
F0EB00E8
F8FD0DF6
F4FFFD0A
D4F50418
E6061613
09EE0D28
E90F17F7
FFF913D5
02040623
DD150BED
220C19F0
D409191F
EEF522EB
F7FA1FDF
02F10C0C
BCD1F129
EFF3FE0D
16F312ED
F71718FA
E3FF1DF1
BF0709F2
C7E4FFF4
1AFE030E
C1F80C1A
D9EE0B27
3E011BD7
060B1607
D5EA0516
E7EC13FE
19DF110B
09FF0409
2A1018F3
F4231BE4
FFFFE509
0A0DF607
F91D1504
07F6E510
F6F80411
29FC0007
DF0E0EFC
ECFAE8DA
FE18F023
EF08200B
E9E0D0EC
29FEF706
D321041E
E5E9030C
FCFB05FC
FBF219EA
D70BEB11
2E24DCD7
D209DEF0
15021ADC
F50516FB
FA17F8EF
102C2D13
E701ECFE
F8E2F20D
08FA0415
1CF9FDE1
0D0C1808
DF0300C8
E615FEEC
1A1C26F8
07E5F735
F9D0E904
FAE00B0C
E8FF4032
E9161119
0009211F
EC040BFB
254432F9
ECF900DF
D6F1FBF1
FB18101D
F50D3422
DAFF04EA
F7D61E15
EFF2071F
F44F5E15
09EEFB13
FADFF71B
F0ED00EB
263C522B
09F2152B
FAF41EF7
FCFD13EC
BECE1A17
E5E70A08
F8181DF1
051A16FF
D51B2B17
E8F8320E
F2DAF9ED
F5F703FE
F500FD09
1EEBE2ED
F911FFFA
FD21FAFF
1CF8E7E6
F4EAF613
D70805FE
D6ED2523
F4FF11FA
17020D13
091219EE
1411EEEF
F109EAE6
DEF311FF
B5F91817
1BF610FB
E40507F0
E91004E5
F0ED11F3
F9192C08
F315FEDA
F0D908EB
DDF3F8D6
0D0B17E6
200DF6F9
1112FBEC
06FCFA17
F11D0FFB
FE0BCDF4
FBFF01E5
1B1AFCE6
EB0EF029
28EE0A1A
F5F802EF
F8EC0FF7
D7ECFAF9
040AEF04
EE1F0D08
041D0905
19F9E9FF
000401F7
F31BF802
0EF1FE1F
E71A210A
FDFD2813
F611081E
DDFB130E
E3151F10
56122514
26231628
F4F4EDFB
F50A21FE
1A1D08F3
45261D21
15FE02F0
03EAED05
E4161502
DE0701F7
08F119FD
F603F0DA
E11E07F8
F72FF4EE
E02F06DA
F8F50801
F2ED05E5
E320FDF8
0BF60CEE
0DE7140C
FE1AF91E
0FF4EAF8
1607EE03
1FE0D5DA
DBE9FD06
CDFF030C
CF1410FF
E60B0711
20130AED
2728DA0F
1D3AC10C
353C13E9
ECFB1118
09053716
15030333
C8EA0807
E2EAFF0A
13E3D31C
2E29C11D
2640FCEF
F00A0EF8
E7090104
F2F9F320
EB13ED11
280C201E
13DB2A0E
08E300EE
FDA409ED
221120FE
FA142E1D
E7160005
FBEA1917
0A0404FD
DDD91AF6
FAE4EAFB
06FA0005
13F9D50D
E806250C
DC1B03F7
D5E2F609
0308E8C2
CEF624E5
04EAFE20
DBE90D20
FCFF06D6
F32616EC
C51D0307
BDF0FA18
FCEBDE13
FA021711
C6EA1230
E3042A10
F30CF8E9
0CDBE5EF
FEF7C60C
E719E70C
21FC0F00
11EB06F9
F6B6ED29
31F7FC0A
F306F403
F7E409E6
EF1313EA
00F0E312
FE0AFB13
E5F2F8F6
EEE804F8
F5041010
EBF5ECF3
F204E9EE
14F9F614
EA15FE04
01FCE500
F613E807
EE090004
09EAE6E9
F414F8E7
10EBF4FF
0512F1EB
E7E9F505
04EF0DFF
F9F9E7F9
08FD0606
050DEAFB
140B0CE4
070FEDF4
FAEF0406
02E6FEF0
E317E804
E508FCFA
09FB05EE
04E8ED05
F8F7F4FB
0404EAED
EEF8EE0B
060D00ED
13F0F4EB
140E1115
FFF30A06
F9FCFBE7
E60F0C11
E7FB1100
F4F312F8
F314FFFC
0AEEEFEF
0DFAE702
0A0FFBFA
0BF4FCF3
0C0902E8
EDF4EC0C
07F1FAE9
E70D07EA
F4F10FFD
EDE50DF0
0701FC0F
EBE50203
03FEFA08
05F9F1EC
FA1512FC
0EFA0911
E401F001
F3F8F1E8
FFEBE910
1314E3E7
EDD7C205
EEECE81A
062E261F
03FBF612
E6F9FAF8
0201F407
FB0AE018
FD0A31F2
1C0100E9
1F01FCFD
F6041B08
18292610
DA1010F3
A7CB08ED
D4E70CE6
2D261A0E
0A15DAF3
DC0311FB
F3DE0D0E
FC1103ED
C1D8DFEA
D4E4FBFA
F2DF0606
2C260008
1D1008ED
FEF80EF2
01EC0C17
121DFC11
FE17121C
0A043B42
2D2FE0F4
20F8080A
171216F1
1DFEF4FF
E5EAE712
EBEFFBF0
FD070106
F71F10FA
E2F1FCF4
FD00E5F3
140E0000
0F07F8FF
EA09F605
EF01F90B
45FBF7FE
1309E8F7
06FAF720
FC06EAEF
593A01EC
172DFEDC
FB0A041E
C9FAF9F6
1B1801D9
1922F502
0D2A0828
DEEB1FFC
2D2FFD03
0F11FF06
E4D318FF
F70AEA04
2633210B
FA280C1D
090EFC05
E2E1E8FA
F721302E
F80AF21C
E8FAF2F2
DCDE0E04
14122202
FAECFBD8
E407F0F5
DEEF0422
E905270F
FB1807F1
ECF215FA
21FA0D00
F1ED19DD
F6F93D13
F60019FD
1222FBD6
FA0F220C
EB0EF8E6
F8E5EFDE
F8FA2428
264729DC
DC0F16E1
F414F4D7
2CFC00F6
0426F423
1D1D1B00
17FDFEE8
EBF2F3E5
F5F0C5D0
EF16D5E6
29FBEA0A
F4E7F32D
081F1C36
F518FCEB
070CFFF1
01FADEFC
F914140B
0E121809
1CFF01D6
100AE5D1
F803200B
15F50BF5
0012F500
CB07170D
CCE91331
F7F4111D
EBF70B20
F9F8F0F5
F4FA093D
0DE11209
0305F9FB
FCFF19FD
FC121A24
1809EF15
E5F806FE
F8F6E421
01EDF905
F1040FFC
D80605F5
2324FBE5
040AE0FD
1517FA11
E60B0AEA
E6080502
08122122
171822F3
DEED07E8
150E0B04
E01EF8F1
03F807E2
FBD7021C
28FEF512
BDE52101
CE29E507
E309FBF1
D80EE5ED
25E9F8FD
3A0E1EFF
1F1103F3
EFF8EFF4
F5FB1538
23E4FECD
03F4F5F3
3BF00F28
EE042319
091421F9
071CFB0A
EE170703
EC11220F
FCF5FD12
ECFAE7DD
15171F07
18230CDF
0F02D5E8
01F51126
12FDEBE1
C0D5FB22
EAE907FC
F50700FF
1F19161E
FF0BFD07
01FE0D1A
01DDFB2B
F3050D00
CE092419
F7F7FB0C
DA15E70B
0B2313D3
B8F0F51A
E5050A1F
02150509
1AE40E06
D2ED2829
D8E3FC31
0D1A0F06
08081721
CFF40D2F
D7C9D91A
CEDFEDFE
410EFE05
E2E605FD
DAFE0BE8
06F00CEF
0F170C05
EDFFF425
06E0FB22
100021F2
03E3EE07
012121FE
EA081CF0
090012FE
10EADCEC
F70DF2EF
10E20007
02F702F9
1607F807
E0DE0713
00E8ECF6
E4FDE3DE
09FBFD0E
EBFC1E00
FA010212
0C0E08F6
FD1AFDD6
F6DAE7DD
F6F412FF
13021A17
0A1D19FF
F5F307E4
04E0FFEA
EFE2ECF3
18FF00F0
DDE8DAE5
DDED0BE3
F7D8ECEC
ED05EEF6
031EFDD9
E9100315
F401D6F4
FEDFF110
E8F706E8
D403E6EE
F0EFDDEB
1503F5EE
F40EF7F8
F1F6EAEF
F3E3DDCC
12E0FAEE
061519EA
F30B0EF8
FFEFE105
06FDF017
0A04E4FC
DB07FADD
FB0307DE
1210EF03
0701FCDC
EA09EB08
E6F41018
D30218F3
EBECEBDC
F7ECE4E2
07E6FCF4
FC1CE7EE
D903FAFE
E300FCDB
EDE6EFF1
16FBECFB
F80E20FB
FE05F906
00E7EEED
DEF1D0D6
EBFFEDF1
0405E7EB
FAF5F407
E603FFDC
E7FFF805
150CEDFF
F5F5E30E
FEECFBFB
FBFFF1E6
10EA1216
0913050D
00F7E6E9
EDECF8E3
FF00EBEC
E70EEFE4
F6F7F202
06FEED0E
EC08FB09
E501E9F8
0A0B01E8
11E8E9FE
0FECF20A
04011000
EFF41207
E812FAF4
F0F9ECE4
00FDF5EC
0AEE09F3
09F9EF0B
0C0D0AFC
EF12EFEA
F7F4DD0B
0CEDE8FE
05E5F0F8
131A0D0E
14F6F2F0
0D050801
E3F5EE0E
E806EBFC
F6E6EBFD
ECFAFCF9
F9F8DEF2
EEE80501
E1FFFBDB
080AE1DF
F3FF0AE1
0BE4F7EF
13E6F3F9
F4FDEB03
09E8FCE8
EDE80E0F
E7DAE7F3
F802E4E5
E9F40C07
0BEEF411
FB0209FB
FE0F0A02
E6F40C05
FEFDF00B
DFE7F200
F1110EEA
00E8F2EA
13EEEE15
0716FDFB
D6F91400
13DD0BD2
24DBDFDC
0ED1DCE1
210416FD
FDFDFA03
EDDFD2FD
F5DECDF2
07F8FBE9
030416E0
DFF9EE10
E9AED40C
0E10F0D4
DF0D15C9
0205EDFF
E7D70136
1922F3F9
FA2A2206
C90101F9
E7BBDAF4
043611ED
EC261CE1
18F90333
E6B3F34E
1B06E0DA
1B11FE09
FAECECF8
EFEFCCEF
F5DA0A4D
E0E0CD2B
D1C4D623
DC07FDBB
17FA1C05
02FBF30D
E8120009
061CCDE9
0520E4B6
1215ECE1
FFFD2C1D
F3ED2300
051FE7DD
EBEFF115
F8E6120B
11B2D7E4
ED251BFE
04CC062F
F5ECD80D
1207D1EC
16FE1412
05122922
1610F20E
1854ED0A
FD07170B
F8130722
0AE4D610
EDEAF9FE
0D3FFAF3
292D2814
11FB1012
0DFF2A26
16F1E3D3
3513E3F3
2F060700
EB2F0A02
212F082A
F81622FA
F90D1EE8
13FBF9F5
F110FAFF
171DEBF1
0DF713EA
3DD4AFC3
E904EF0D
D5FBFAE8
F8160CF8
BDFE0100
F6E4E703
FE22020C
FD2211EB
DFF8FBDE
F92614EB
01190916
06040F25
B9B1E8F1
011306FE
1600F6ED
2F0BE5F2
ECF92410
1409F423
030FF90B
12071E13
F6E0FBEE
0EF2250F
10F6FBD0
EFE8FEF8
23DAE6DA
F01D1D07
1CED190E
25000003
021AF41F
03F3F809
F6F9F8F9
13E5F623
02280DDE
F90B1900
08140810
0906230D
E0D2F6BC
FE100C19
FBDFFB1C
1B1B0108
08F40C01
EAFC1F37
27F90E1F
090A1215
01051833
F50D0B23
DFF8FF24
D101E90D
FEE2EDFB
F2EE0E05
E11912EC
1B05050B
E40B1B1D
FEFEFDFF
130CFF00
1BDD0604
2C11FF1F
020F09F5
FFFD02E9
F7170BF7
0BE4D91C
22F7F7FC
F9E70F02
E4DBFBE9
F70DF914
C5043608
0720FDFA
E003F5F7
E8F2E1F4
0B160BBE
0D293D09
FF1E1CF9
200221EF
141AFE12
DF0EFAA4
D9D1ECC0
F5F22A5C
222E24F0
E4181FFC
0B10E5FF
2DFB20EA
FF0B0DFB
F911ECF1
0DE4F8EA
DEFBF203
1EF0CAFF
0508B406
1512033A
F619D638
040F0E1F
F5FBFDEA
E3E62C00
EADDDC02
271101E4
123E070B
F8F2E8ED
EDE5F8CC
E7292912
E5FBDAD9
DAF2FA03
C80FF802
EDF50C34
EBDDDF13
F81C1F25
FEFA061C
F9F90D2A
E4DCEDF6
0DF4F3F6
F4271F35
E2D9051E
E4D8E6FC
DEEEEFEA
E4ECFF18
01EE0400
D12B3508
FAE9F511
09190DE4
0610C8E4
F015130B
EC22E6E5
E00BF3ED
000B0624
060CE8E0
FDFD01F5
1212FE22
1CF50BF3
ED04EE00
DB060BEC
C1F3310B
13FF120F
F9F2F110
2915F2F1
073B16E8
D108EFFE
D0D609F1
B1D8E301
120B06EC
F42607F6
F60AEEE9
1D0BD8EC
101E2626
F9F2F7CB
C0DD01E3
0E14E9DC
030D07C5
0E18F01A
ED1A1207
01FA08ED
0021F814
E4E3D5DD
07FBF9B8
F720E6F5
E4D6D4F7
02F70E28
02E60A0B
03FB1C00
F90C1D33
04091BDA
03141CF6
1C0C0DD6
F2E8ECE8
1D1C35F5
1A1307FA
F0190CFB
DA2B0F24
0C001122
0E04140D
E0ED3612
F32C1011
2B201F22
12020027
FDF0E5FB
040903FD
FB0C28F1
343B07FA
1EFE0F0A
D5E81C22
D8F4EDE1
C0011E1C
FE06FCF2
E62D20F0
03180DDF
FA2822EB
E812E7D8
C7E915F7
461A4A44
1A171410
F1EBE2E1
10F711F9
FB17F7FB
CB04D905
040619EA
0BD90208
05F903EE
F02914DD
EBF8E90E
E6111D24
FD1B0814
0F320B12
CF09DE15
9ED001F3
190A14DB
E30A3B0C
E920F233
EBF20102
040CF40E
FAFDEE24
D4FBF2FE
AADC0B1F
032306EB
F9E3F6E9
0EDFFD15
112117FB
F1E301E2
F0FFFCD4
E811E3EF
03EEFDEF
12312632
17EFDBF6
09E5D5F5
25121002
12FF0BF1
1215FBF7
FBF7ED1F
06261F01
272F0F0E
E2EF11FF
01EADDE2
0802F2EF
CB0E0D32
F4CA1BFC
FAD8F20B
F91817FA
BCF75625
F3061326
E6020405
0BF6F7E5
D0062D35
FB071900
FCD8EA1F
020201E6
DBE5F2E6
F034330B
E5131223
0612161A
F6FC1404
2E0211FD
03D2E4E2
0CF1F8FA
F0FB100F
F8F2E4EE
E7FFFE14
F116F204
09F0FE01
E2F6EDF5
EBF5E40E
FFF80706
FEF608F9
FCF8F6E9
0FEFF2F5
E8E0F5FE
EFF2F713
EE0805EE
F510F103
17E9FFF8
F60208F8
00EE02FB
00FFE403
FE02F311
E20EF1FD
FBEAEB06
EBF30CE8
08E5F310
F91006ED
EAEF1414
EB0EE507
0FE60BF6
F7E41908
EFF200FD
0202FBFD
E9EDE5E8
ED07F7F8
FB000815
12140CFB
0CFFEBF4
03F810F9
09E2F8EE
E3E9E806
FAE10404
00E5FF12
FEF5EDF7
E81B01E4
03F0FAF9
0AE2EAFD
EA0CE1E2
0606E9F6
0AF6DEFD
FA11EBF9
EA0DFFF6
E6F3F6ED
02E7F5FE
E905E1E1
1408E4FF
DE07000A
F1FAE903
05F4E60C
F2F903F6
EB0E00E7
E6E6EFEF
020AF10D
0FE2F1F2
F012EFF0
EAE5FBEE
FF0FEED4
F1EACEF7
DDF9EE16
EC241A11
F0EBFCE6
E60113F9
070B161C
0D261F2C
03FEFB23
1D10FF14
03FF040C
1C2FEBFF
D2F7EDF5
F1F7F704
E2010217
1D1AE70E
EA0BFCE9
1EF9D8EA
E0EA10D8
0E10EEE1
0D03FBF6
26F8E6E8
1D0B0804
0BE8EB02
F4F7F805
1E10F9ED
F3001415
EF170F0B
11EEE9FA
E4FCFC1B
1AED2A14
EFF713EA
06F508EB
E7ECEAEA
06FB24F9
E4ED141B
D70A111A
F20A01FA
150613F6
11F2070C
1CF4EBF0
300CEF0F
E50D2BFC
09071A1B
031E10F2
F80018E3
FBDB28E5
F4151BFD
3504FD15
20EC0EFB
0EF7CDF6
E4F7F403
35261AF3
080D1914
1AEC070B
F7DFF700
C1F01C21
F2332F02
ED0E03FD
DAF4FFF6
FF1BFD39
F8EC1B02
1324F2EC
DCF11418
FE040C13
0009FE14
F712F8F8
13FCFE0C
1305EF05
F20FFD08
F3E2E911
050FEEE8
EF070C05
02F5E8ED
F1ECE3E5
F5F20808
FAF10513
EADF0E02
0DEAEEF3
06060DF2
FBEBE3F5
07EAF3F9
06EBF2F1
E9050306
EAFDEA13
0510F90A
F501E9FC
F6E702E6
F90712F8
EBFC0EEA
E90403F5
F3EF0DF0
14F2F30B
0F0810E4
FF080017
F600F003
E5EE08F3
07E716F1
EF02F217
EDE8FC04
F6060E07
10F3EF01
EDFEF211
F807EBE4
14E90DF0
10EBF503
0417F4F1
00EEE705
0AEB11F5
E60101EA
16EB15EE
0D0AFAEF
1113EEE9
0B12E6E2
FC1107F3
E61313F3
13F5E108
F9E601FB
F7F60B0D
FB1502F7
FA16E7EA
F205F8F2
E6E80A09
FCFA0CF9
1301FFE9
F1F7FFE8
FAF8E5E6
F8F9E5FD
1A0EECDF
F1F1FFEF
0107FA23
F5EBDB26
0D09F7FF
E7290601
E6EBF311
05CDE207
0D1A1211
F9FFEDF4
FAFFF4F3
EA16F9FB
A5DDD3FA
03ED1BF4
02E4131A
F2E80A01
1719ECFF
192AEDDF
0216F500
D4DF06E8
FDEDF1DD
E7EDE8FE
01EEF5DE
06051726
21091D0C
F723F7E6
EB1D1F11
DAE1E305
0DECFC0B
0BF32202
0DE3DBC7
DDFE08D8
211805F8
FF111926
0CED2035
DE081915
F7F33913
172415E6
14E9EBE8
FEFE0002
311400FF
172A0508
0BFF14FC
CE0511D7
223808E8
13171FFF
0FFB0217
E603ED22
1A1E271C
101DEFF4
1FFB0F1F
E8F1DDF7
45104114
09131122
F201231F
C5FF0709
E104F216
ED250DDD
F1F006D1
C2FB020A
FDFE2F14
EAF30F02
04FF05E7
F9040A0F
4215EC05
1D20FFE5
170DD9CA
E3FCFCD9
FE0B00EC
07F613E7
EE12E3EF
10180AF9
1BFD1101
1104FBFA
0512FCE7
0405FEFB
F8EA19E1
2E00F9E7
0E09F21C
FAD9E726
E704090B
0CEA0AEE
E803FBA6
0C27E5D5
D91A23F5
1DEF1332
EDF61F2B
F5E3E90F
1CFDFF17
14E9FCEB
E9F70EF8
F40518F8
F3FBF313
1419E909
E2FA142F
E4282727
03DAF1E4
E8F206C1
F20212DE
1EF2F5DA
F2FE1B14
F0021A26
E917F426
F20909F4
0414E51B
0C0B02DE
19F0E4F2
21050BEC
020E04E5
EAEBD7D2
0F0EDFD3
160C03EF
EF05FBF4
25FF0BF0
FEFCECD8
181FE4B7
13E9EEEE
E513E9C3
32E8F2DC
2C0CF8D1
01063120
08001D0B
00232D02
260EFBF9
F51DF4FE
E41FF125
E8F019FA
0CF431FF
EDF6ED03
02DF1523
FCF527E8
D6FB0805
E2E2020A
F3FAF9F8
08F3F823
2A0DEED0
1A051C05
F5FD1416
E4DE18F3
C6CD0301
DFE9121E
AFF6F809
D7092605
BC163CCB
E70AF318
0004E2D6
22E70F2C
FCD7E0F3
FA08EDFD
AD05111C
B40605DF
CD0D2DC2
E9140514
E5E0F4F6
FEFAEA02
17F6ED09
07F81B18
FE18D9DB
FA11222F
2419D3E0
28132818
E913220F
F8ECFEF8
1E12102C
F3FDF816
00FCF71E
DBECEB1B
F804F304
04F4EBF3
E1100F05
1C0C0D22
240D1B1F
02230C16
DEF3E902
E30AE50B
0AF7F730
261608F1
0928F10C
F8310505
06E5E503
E4E9171F
F2DDDDF7
0F100335
24101A3B
0E0D0F13
EFEADC25
F6C0CEE2
F6CCEEDB
F8F808EA
1B14E9F6
17E30216
341AD7E9
0EF6EDEE
F70BEF0E
02F4EFFD
15F4E7EA
F1F8F002
EC06F4EA
EC00E601
0CFDFF06
EEFBF9ED
FE030EF7
08F20310
0AE80E06
F6FAE80D
FF03F1F9
05FDFB02
F10BF206
EA16ECE8
ECEFF903
E810F9F6
EBFFECEE
EE08FCFF
ECF3F703
0AF3F7F4
F61401E8
EBF7F312
F50BFBF4
F8FD15F5
ECF00CFC
E7EB1610
0C0110FB
F80809F8
F3FCE605
FB041200
F9ECFFFD
05E904EB
F3FD0612
F6F7FCFB
F2EB09EE
051308EE
F5E510EC
FFF10CFF
06EC0914
FA0EFFF7
05040713
FB14EE0D
110A1316
F60E0E03
EEECFCF4
13EFF910
09E413FF
10E90A0F
F8010AF9
17E8F1FD
FEE50F0F
0B10E608
1711E802
E5F006EC
16F904F1
EDE50E00
F0F7F616
1500E7EA
E5F00AF9
F9FAEB04
00160FEE
F1292209
E905F8D6
F9E0DAF3
F10B00FA
FFCBFFE2
EDDE0305
FF0212F7
14EFFDD9
03FC0C01
05FFFEF4
DEF8F4FF
F3E50BF7
141BF3D2
0405FAFC
F705D509
F1F8D6FE
FBEAE40C
E1FEF9FA
050DF906
DF040315
E7E0DDE3
15E9FED5
F0F6F702
F8DAF9EC
D9E9DBFD
E2E0E7FB
0605181E
08E1F0F6
EDFAFB10
EE010E31
F60B1314
F0ED09F7
EDE6FFFC
05F3DFF6
FE05F5F4
01FC001C
E4E7D70A
0F01ECF7
E2D8F3FB
1805ED02
EBF703FE
EBF2D204
0518E81E
1B0A110D
D5DB1014
0709EFF6
F80F02F6
0AF8FFF8
DFF502DF
EEF712F7
EAF0D6D9
03F4010F
DBDFEB0B
F2E8E40A
E0070BDB
FC1200F2
DA01E9F6
2414E800
19DFFA09
FBF7EDEA
FCED0C10
F7E3F0E3
FBF7F0D9
1700EC15
F7090C1C
CFE4EF2D
EB060F33
072312F9
00151A1E
16F7FE05
130F0CFA
E6F405EA
0DFB1DF8
02F919FE
00F70CF5
1FF70017
21101FF1
F5091A12
F4FF06FB
040822F4
09E3E925
0E26F426
FA0D251C
F6D81E01
3F232DF3
E7F81EED
02E424FB
2019040A
EF08F40F
0DECF52D
1E090B12
0CE8F2DD
110DF713
0626F2D7
2714E1D9
09F6DDF2
F2EBF920
FEEDD802
312A1414
171D15EF
20FED4D5
1209E101
E00A14EB
F7131D1E
EAE20E2A
020AFC06
2F100CF6
230AF4FA
16FD2002
05E00944
1E22FA12
1C10F8E7
F9F2F014
EFFF0F0E
20190127
0EEF100C
C4DAFB3A
03FC03F5
FF3CFEFB
14EDF8F3
15FC0401
362402F0
0AEDF426
20FA1810
0F09D101
24E6D4D7
1510F607
F71000F9
C9E5050F
FF122021
F4F7F307
E6D21204
1315FDF7
F90A191C
0EE7FE14
F4F6CFD6
0F0BF8EB
1E020B1E
E20FF9FA
C9060D1C
12FE01F4
14210F18
0313FBFA
00FE34F9
1B050B06
ED03151C
11140D06
E4BAEBF2
F6220912
131F0315
F9E4ED2D
F11AFD13
011303FE
071DF217
0209F726
EBEDF306
13280717
1215422B
16DE390E
E1D9F703
FD18F8FA
1CFD18F4
F01C1726
1AF40BED
22011109
07EE2603
E2FFD617
DB1AEFF7
F8190E02
1F04FA03
120E0817
06DFF2D8
0DDDDEE3
0FFAFED9
F724E00D
F7EBD6EF
B6C7FB0E
D7F3E2F1
110F03DF
03F4060F
E3F7ED08
FEE007FD
F0131118
EC1F1A1C
1E03FCF3
0EF311FB
0BF3E215
0FD30211
0204FDFE
16F719FE
0FD7ED28
2C0FFD05
112A27F6
0BF01231
DAFFFE35
0604E6FF
F3131009
E2F406EE
EC03EF0A
0AF9E8E7
F5F71614
03080507
FCF138FD
FBF32615
E9E60716
0FFFFAF5
C302F0FC
10161FFB
121FFC02
0A16F0E5
03162141
EBCE0EF6
3BFFD0F1
1216F1D7
D0011A0F
FF080911
F7130D1A
EAFBF80D
E60A0DFF
08ED06E9
EE181AE2
002116CE
18F603BC
1FE8E700
13200813
0BF0F027
F51DF107
04DEEEEB
F5182612
1B26160F
FD042115
01E8F831
140F180A
FF10FB19
FF242F0A
00F2EAF6
1A0B1A0D
F301F630
0EED0910
14DDED02
0E10071C
26FBF6F7
2D04ED2F
EBF9E3F9
FF283B22
1E201A0B
1825F80F
0BFEE3F6
F8D61A25
1335E30B
0AF60D2A
F6EFFD32
FA1B0110
E7181A06
F6EE0411
0CFD011D
DFDFEEF7
F7240CF7
DF141E24
0EE1FD0E
EC1B0118
1BFF08F8
E5F70606
F5CCBECF
1CEA07EA
E92E0302
ED00F913
B4DAF2FB
E7E1E3F2
0913F411
3621F201
FCEF2F0C
1511E701
0D02F3EA
021615D8
C6AFE9F6
E61A0518
0F18F714
06FBF60F
F2F82612
090C08F5
1E13150E
FC24F21F
E5DEFEDB
F70D06FC
F9073E1F
0CC21EFB
E8D6DDBF
EB0A2109
15FCFDFA
02FD222E
FB15F0E2
F0E90FEA
F803150D
F708D403
E41303E9
04E5F8F8
2613F9F2
1C23200D
C3C0EEE2
03FDF6F6
FA06FAE6
FA38F9F3
FBFBF7E8
FEDFD6F8
061213FB
EF080D11
051B0B1D
2E06060E
E2E20FFC
D3DF1C0E
DAFEF4FE
13F4FD0A
2806F8EF
FCFBE3E7
F409182C
18F7070D
FBDE16F5
13F21617
0E170D22
FDC8FF31
D2E7EA06
032C0DFD
2501FFEE
FCFC0AED
33F72617
F3250EEC
ED07ECF9
EAEAD5E8
DCFB03F9
1BED0AFC
2201040B
1C211B1A
E2F4F1FF
22F52C02
001107DC
E706E7F8
2D231B2B
230C0C27
F512FDEF
F6EB05F9
0410161D
110C27DB
DADF0AD5
EECFDEDA
0C13F401
2C011116
EE1C060C
FB16FB1A
111102EE
030BF33B
FA16F1E5
E1C4EB0F
14240CF4
1A102908
FC29322A
D2CBCDD1
E407DEF4
2513F813
F8F8EDF7
CAD8C6D8
1309FCDD
30EFE7F7
1F160231
0512DEF0
E70AE00B
FAED1A10
261D14FE
4326F2FE
14FC1802
FF040F07
37F623F7
F0E1EC07
FA26F3F8
F1FA140A
290DF2E4
3606DDE5
1C140E0B
130C1218
201334EB
F805D2EF
F907DCEF
0B1D1B05
F6FD0501
070C0FF8
D900F6F9
F10FFA09
EFF0081E
FFFA0E0A
F9E4EB02
EB0FF0EE
E310002D
E10AFBE9
F7DF1509
F9ECEE01
14FFF4EE
F7F324EE
A5EF2B10
E2F4F8EF
FEFBECDC
F222FADA
E0FF0BED
F2EAE805
0A17434F
E41324E6
ACD206EB
EBF8F1D7
3D1DFDB5
1FFA1BFB
04F1FCFB
04F3F3ED
EA1EEF04
0502EDEF
1702C7AD
0211EFF3
E4E3F51C
05001D36
FB06F40E
F8F1F618
E6141B2C
1032F3DE
010A1CDD
FEE4EBF1
0FE2EB04
190A1A26
0918050C
E8F516F7
F3060E3B
131E0E21
EC0E1026
D9CE231F
0501040D
310EFB28
22040638
FCE3F215
02F9182E
F51AFEE8
3F111300
00F1262C
E3D3FB33
05EBE5D5
F6E0050C
E1D0E011
FD0919D3
0B2703C1
07200501
F52210E0
E6FBFCF5
CAF20CF2
ED04F0EC
EB0F2A38
E0FBFEF8
03EFFBDC
D8E726FD
070D06E4
0503240F
10240910
08EDFBED
FDE61408
2315190B
F1E510EF
B7C808FC
C8F5FCE1
141C0E0E
EAE700EF
CAF5E6CD
E8DDE634
1734422A
1C0306E9
D5CEFDF3
DFDA02CE
360C19CB
220C0C07
0AF305E5
FE070FF0
0A1305EB
FEFF03EA
E109ECE1
0D05EAF1
1BECE52B
01FF0CFA
F115F402
FA05FB23
D7E1000B
08241019
F826F5EA
EFEAFAF4
19E6E2F0
01242FEC
03FC2C06
D8FA0BF6
EE19F0FF
FF06051D
FF12232C
ECD63010
EDFD00ED
121A11F3
FE1FDE00
020BF92C
B9D11C0A
14042205
47220FF1
06170410
E6F2FD38
0AF806E5
FDE10F02
DEFFF41F
DC230B06
F81412F4
110BFF02
FAFBEDDD
C5DF1411
0004E8C8
1B1A11D5
F00301F0
DAFBEA09
16F51C01
F70EF025
CEDCEA0E
FEFE041B
D20F04F9
111CEBFB
09011104
E50CE6FC
B7CDF50B
2818EE07
19090713
17E70E19
130C05F0
2AF113BC
DDF3EDD9
DE11EAFB
F4E60EFC
09E80128
0B20F803
F606F42A
13FB2504
13FC1706
E516FFF9
DDFF15F7
F70B25FA
0B072F52
E2E02611
F6F40B1E
09090BF2
F40912D9
D7DD1722
FDE21122
FD0E1511
FF1F192A
0208E4FD
FCFE00E9
FD1B16F9
0005EDFF
F0DA01E6
C2ED03FE
1506F7E0
EDFC0DBC
F2FAF703
E5041015
4531FBE0
0804FFB1
000405D6
FB14F814
38282B05
F1E3F5FA
D6C9E8FC
E1250F12
EE042711
E30C02F9
15FB1CD1
F9EF1B0B
DDEB131F
0EFD0C06
08E81F13
E509061F
0BDFD5E9
F2ECDFD5
F7080402
FA090607
1BE3E601
15041E16
FC191F09
E1140B20
04D6CCF6
FCF414FF
0B0F0DF7
2603EA02
1026300E
E5DEE412
2B08FC04
E908080E
00F2FEEE
F6FD2C40
06F90A08
F0E704F4
F20A1E13
D801FB2D
0AFA0D18
00FBF921
F4CDD8CC
F4E9E912
1817EF25
1B1115F8
1207F015
F010FC1D
06042727
021712DA
E9D8F1D9
22FAEAD5
05100F17
192222FF
00EBC4ED
00E00CDE
06FB170F
F1180C06
C7C8DDD1
EFE0EAF0
1E0408F7
00130C16
02DBF2DC
0EF6ECF0
FFF5F41C
FD0703E7
2715F9E8
2707DFEC
0408D8FA
031DFB0F
06DBAECB
10FD19E4
FDFCF728
271AFD10
3F40FEE5
0B171012
E20705FD
E7F2F0F8
2C0DE2FF
09FFD408
020D0115
ED081515
3D2610DC
1B0BE7EE
0DDFD3D6
E5161C19
1607E801
110EE0F3
06ED1813
390D0609
FC22F608
230EE818
1D01E417
062CF70D
35E5E90A
1E0AEFE4
24EE0E1D
1EE6E619
F310FB03
38FBF916
DB020FE7
2018FADD
11F00A0F
30121AFB
0709F60E
DDE9F505
E306FA0C
F7F80B15
1A0B14F6
120DFF26
0601FBF7
F5DBF004
EC022F08
F720302A
DC00F2F1
D8E1EBE5
F60BF8E8
0D181BFD
C803F8EF
E9EA0602
22F12B34
0519FE10
08EAFAF4
0AEFFAF9
FA0DFFF0
FC211D11
E90618FD
121401DF
1DF3F3D1
EFFD3511
E8FA1332
E0FB03F4
F8D7CDBB
2C170BF8
2207FBFB
E8ED0BF3
0609E7ED
1B27010D
B30026FD
FD0CFA32
330C1919
F9F9ECED
D9EC0C18
CFFDE222
FCF50918
15DC0C1F
F214E8FD
11ED0E00
1A0D0902
F3F9F52B
0F0A0DFE
FB28FC0C
F7FE04F2
C0EB09FC
0C18FAF7
281C0A21
20F4E1EF
070CEEF2
1DFDF6DA
10E607F6
2015E50A
3A0C16FB
FF1A0701
13FED5E7
F917E7D7
E2040012
0C1802D3
FD090B11
070E0803
341907F8
14F9120E
FE1418EF
07FDE2F4
F115EEF9
21EEE8DB
0C13161E
FC13F21E
D7F00A0E
ED05FC1E
0A1A1E0B
F6E60500
EBE7E420
05260B1B
1B0A1214
09E6FD08
EA01FEE1
270DFF10
18140DFA
0AF3E91F
D5181EF4
E6F4F501
1A1515E8
0221F10A
0F1DFD01
BCE1F318
E3F1F803
EA10FFE8
1EEEFEFB
0509FE0F
0D03E80A
08102222
EDFE1413
0AF2EECE
131109F5
FCE703F8
2C02F8FA
0DF104F4
03FCFA08
DA0C13EF
EF0E0B14
230D0CE0
ECF4EDFC
D503020C
ED12100A
F51908F8
E0F316FE
E3D40C14
290E101E
E8393C14
221E01EA
030F13FC
E5061FF3
EB15F7FC
2C001CEA
D40005EF
4A0401FE
01FCF4E4
FCFFCBDD
CB1221E7
230525D8
051CF6E7
25F6FBFE
E905F4F1
2916FFFE
F31A1B01
ED1AFDFD
DE172524
13FEFCFC
281C04E8
FF03122E
0BFB2500
2110122F
04EFFFDA
DCE4F4F1
E3D32C15
DED1F316
F20F1233
111517F5
0C1A2710
D5E20320
2315F4D9
1AFB1111
CFFF21FA
E0F5F608
FBFDFD10
F82FFCCD
FAE12009
E2E1F62B
B1CAF710
06F9FDDC
08E6FAEE
D1E307F0
23061AEE
E7F0F416
EEF22A14
02E60C0E
B6E62907
D314FD21
11FC24ED
DD08EE04
E420244B
E6ECFCF3
040C0825
DFFAF52E
F7CCBFED
F701E2DD
0C06F405
E507FC06
FEF413F9
F40827E2
E2222213
F2240401
EAFEFFFB
19D8EA07
F6D609ED
12DE1507
B1FF0B1C
FFDFF609
0E203000
C5000500
0A170DD0
0328E6DF
EBEB0DD4
EAEF12F3
C201110C
EBF9180A
14201EF9
F41419EE
13FBE1C6
0AF1F5FB
0A12F6ED
FFE5EBF8
E102FE1B
F125F808
05222221
342B1102
0EF1E3DE
082901CD
E3F21BE0
F8131017
031A10F6
0221F8DC
15260000
F509E1CF
FDDACAB6
1117CCC6
E20DF0F8
E2FC1C1F
2EF704D7
1C360CFB
CC05FFE8
FB02F80B
5736EAC8
3024FDF0
090E0002
E509DFF1
4128E8B4
151BEEF1
DADEE8FE
CDFAEFFE
22461B16
0EF20212
29FC0F05
E0DCF8ED
EC0C0FE5
F331FCFB
18181401
0011E7DA
000919FC
E70CECE1
EB01F405
F3FBF1FD
E6E8DFF1
FCFDED0A
09FBEF03
E0FDEA13
DAF4F1ED
EE170301
EE09EA0F
ECF9F4E8
07F4E8EA
F2EDF405
0BF4F401
09180DF0
0EDEECF1
F1F9FBF7
DCE10114
E1ECF2F4
EA07DB10
060100DB
03FD01E7
0DF5EEDC
F0F404F9
EE13E3FC
EDF608FF
FF040BE3
F1D3FAEA
EAECF6E5
0CF209E9
08F901FC
DCF208F0
0EFFE911
D8FA220B
F2F710FC
EFFEDDEF
F8E80102
FAE90BEB
0CFF0BF2
04F20CEA
F81114F3
FC150613
050BF2F3
DFECE911
07F4DEE3
FEF6EFF3
FD13F00E
E70D01F4
EBEDFEFB
F8E0F608
F9DBE9FD
01E70D1F
E4EA050A
FEFC0BF4
E8F9F513
F2DDF40F
FB0503E7
E406E6E5
04FAF8E8
0DFE11F2
F6EAE8EE
FEDCEDFE
030AEDE3
E8F6122D
06EE2E31
EFEFEC22
04C9E2D6
F91E1519
1CF6E3FB
051EE5F7
E400E4E6
01F9090D
FB1A11F3
EC0BF80A
05E42904
FBEF0D0E
F41BF903
F717FC22
0900310E
2415F611
111D121B
1DE5032D
EADFD7E0
0824F313
0523181E
EFDD1031
001A060F
131E121B
FC14060D
1AE9E9FF
0EF110EA
ED1F0EFB
10030501
0E11D8D0
F4FE1106
1DFFF609
140BE70B
241AD612
1412D3D4
0704ED08
10190D10
0DF50801
F60F0033
0A08FC30
04F3FF26
0BF3F906
15FCD4F7
F9EFF01C
0A0BE81F
2612EAEA
FEFED7E2
E9FA1A10
EB0AF01E
0520F713
FAEDE7D7
DDF4023E
F6E1E91A
0923D6DA
01F803FC
12FC070B
0D21F0EA
1113F118
27EAFA13
1DF9FFE0
2C0217EA
1EF30FFF
0C2C0508
E80B03F7
E9FC01F0
E5130831
D0EEF320
0D11E8D8
C6022315
B800F600
C9011624
0F08351F
3A0FFEFC
F80423FF
1A1D041A
F0FC01F9
0DEFFDE4
E9FFF6F2
24350A04
18DE00E6
011DE8CE
BDF217FA
F02E23D4
1A1DE7EE
07EF19EF
D201E9F7
251EEC06
2E1D130D
2208FAE1
090B0FFC
F6FDF602
13FED1C4
FD11F612
FF0B0A02
F5FF2034
000A1AF6
F2E7E9E4
CCDA11E4
D0D1090F
F92E3517
1E3219F3
051522EB
02E30A16
1E1916F7
1C3308F9
E2F616EF
C8FEE6FD
F2110A02
1A3516FB
D9E907E9
F2FBF806
F1E3E91D
FCD1F0D7
030CD4E9
C8F5E7F3
161E181C
032CF115
030D201D
E9E2F429
D8E8FCFE
091BEB0B
EE0C0EF4
D20EEBED
FA0F1F17
F10926E4
FC1E02EC
F8EDFDED
160A0907
0017050A
1C0FF005
DAD20F12
161A11E9
F82400FA
F7EAF6F0
E9E90BF7
170F00ED
2223FAFD
1009F6FD
EC0C271D
E9E108DD
2BF0FF08
061DF506
FAF11D26
15EA1A00
12F30FFA
0FF2F6CD
F3F0D1E3
1407F415
38F82722
E8E6F513
F0EB0801
24FC1219
F2FB1DF6
F708F700
F6070D11
2519EF00
2323054C
E8081D15
DBFE2042
FCF8FFF8
FE0E05E3
EA08F203
EB0000E7
FEF8FD0F
08121624
F102FAFE
F706FA01
FFF61C10
E9F1010D
1AEE02FD
FEFFE806
FA07E311
02F0DAC8
281EDCFC
1105FBEE
D4121FF9
E00AF1C8
F011FCE4
1F16FBD6
11F80305
CCECE313
F50F00E1
E0FF0AFD
00041AFE
0DDAEEF9
0DF0180C
0810FCF6
13050EFC
FBFB150E
FF01FE2B
0C19F31A
1FF805FD
1BE5DCF3
FAE6C9D2
F4F4E7E9
FCD30DE5
F7EE05E5
EEEB0502
001E230B
F3F613EC
DADCE6FF
EBD7F0F5
0CEF0C12
E91817F8
E6F21BDF
DCDF1DFA
DCCDE8FC
DE10F518
D41C10F3
0714193C
3B101331
EAF41A0A
DD1508F3
E1E11C2A
CCF41D05
EDF1050B
E7E2F4E2
F2EDF010
04FA0F06
E8E4E524
FFFED312
F7F2EEFC
181604D8
24110B17
07EDE515
0000D5C5
2C2A1D1B
F0F60002
FC15D708
D713F0DD
FEF1FBF9
DDF7E90F
C9C4D109
F8D201EB
101D2033
20110C12
12F7E110
F6EBEDE3
11F90D12
193414EA
16161E28
2128301B
0C1B06E5
E2E1F006
DDEC0803
F4D6F9EF
210906E0
191DFD14
F71B06DC
340D0420
25F7040E
140E15EF
0CFF0F1D
F3F801D2
02F60EE9
0E12FE09
0AF91112
EAF7FFE7
0AEA0EE7
EBE9130F
F3FBFA14
0901EAE7
0F0BEB16
061111F5
ED0FEAFF
09F915FC
F100F301
0BF0ED00
0807E50E
EE07FDF2
080DF007
120704EE
EDF815F1
0FEBF80C
1415FF01
E5FAF1FE
0FE70EFB
F200EEF6
0DEF11ED
F0F3EE02
E5F0FDEC
10040FF9
FB11ECF6
F1FCECED
0A00E901
E8F1F5FE
07F5FD0E
1502EA0B
F903E8F9
13E9EF03
E80D0BF5
FB09F615
F0F50DE8
F0E9F9FD
0CEBF4E4
DFE6E9F8
E1F0FBF1
16EAFEF3
FDE5F003
FE160AE8
F4E41010
F102FBF8
000EF6EE
11FB0C0E
0BF00FF1
0B00FCE8
03EAEAEE
FEEE0CE5
0AEAFCF8
0DEDF811
E4FDEC06
040EE913
06F40914
0311EAF1
0D11F6EB
F4E5F503
E8EB01EF
F102EBF7
FAF1EB01
30223904
2C10F61F
FDF8D3DF
292704CC
0C0AFA00
3411D506
201BFB00
20EF1AF3
03EAE5F3
090DE20A
2A00F206
0C1A1A0B
2A000123
10E8EF10
E4E7062F
ECF2FF04
F302F400
17FE2938
EF020B2B
1411D8DA
F7FEEF28
231019FA
F7E6F414
E8D4D72A
F0141D24
FA1313FE
03060A15
2013FB14
E012F3FD
FBE5FEE9
ED18EDCA
EF243FF9
E9E91213
0A190810
1421EADE
120E0C03
D7D8F71C
DCE2F8E7
1FE90919
1B0D3316
030C101A
F402110F
1C09F6E5
20F700FB
BD05040E
06F9F119
0FE4E0F6
190204F5
03161612
13FD2A3A
2CFDE8FE
3B0BFFED
0D0E1D00
29002B21
3003F9F7
4B22FDD0
FFF4000F
1A0708E5
2B21144B
3D28EC28
E2131D02
E6F90B19
0CE4F718
090A2116
1003F9FC
EA07E7F7
12FDF2ED
F616E8EC
FFEBECF8
F0040D00
F5EDFC15
FCEB0312
EF0B1013
EC04E7F8
FF0106E6
FAF509F2
EEF81208
09F7F9F6
10F5F507
EDFB0DFC
0701E308
F2050005
EB14ECFE
E715F207
04FA1413
EEFAFB01
05FAFD0E
FAFC00EE
E8FBF9F8
0215FCF2
F411EBFE
F3FC03F1
F50AFDF6
EB0CED10
0402FBE4
16FFFC06
FEF31303
E80AFCFA
E8120310
F7FFF918
0A060103
FFF60F10
001103ED
0BF5F0F6
F3F2FAFE
FBEA01F2
0818F3F7
F806F202
E8F6E406
FE01F3F5
F40BE901
16EB060C
18FAF105
F2F0ECFD
ED01FB05
F5EAE713
00EDF3F9
03F6E604
FCFF0DEF
EE12F8ED
150DFDF3
FDE5F1EE
F00B09E7
F5FCE415
E70A0BF8
0BF806F4
EDF40D14
0EF6E6E6
28E2DDDC
16DCEC04
2BFAEFE1
07F0FCFD
090F010F
2BFE17F1
F521FAED
E4121518
30F0050A
30100427
43000A21
1302F822
1CED0009
17D6F301
170BF812
FF0AEC26
F5FB0413
37F70D27
F6E217C7
0F03DDA5
F719111A
3009FD3E
05D1FF31
F7E80925
0DF7FCF8
1E271D16
24201102
041E02E8
F0FBF72F
FA02183E
0A19060F
E6302D35
0706ECC7
FB0A08E9
1BF912DC
2703F9EB
F6E601FC
12181606
F50F0DF8
1304FE0D
DDE5E8DF
1B0BFEE7
1AFAF3DE
111C1012
F9F8D8F0
1608DABA
1927E8F5
0624E9F0
140EF9D0
FF0100BC
1AFAFEB8
24F4DCD8
180DFD00
0A0FD3F4
1C24F9E6
223A01D3
1E151708
2414F915
160012FC
20F0DAF7
120FEB10
E5EFE501
FB30071E
FB151B00
F502E915
FB13F5E6
0FE60F00
120F0CFC
E6E40104
EA12ECFD
E5FB00F4
EF00E104
100AFBE5
07FAF6EA
FC04E1F6
E7FAF10C
0BF6F4F8
0C13FB04
ED0CE5F7
01F10FF6
F4090303
08F0DDF2
11F5FFF3
E608E7FC
E107FCE5
0B1008EE
FEF30704
0A0B02EB
FAF40207
FD02FDF1
E900E6E7
F0E908FF
07F8F6F8
02F8E4F2
F20BFA0A
FCF7120F
F9F70FFF
FCEEFCE7
F8EE1204
FF0EEC07
F4EC0BEF
02E70402
12F80FDD
FEEA09EC
020AFFE9
FE0708F4
02F8FFEC
EF0F0DFC
F506E60D
0BF513FF
0704F001
ECF90DE7
0405F3EE
E70900E6
FCEEE7EF
0CF8F713
06F7E408
E5ECFE0B
E303F8EB
0FF0E1E7
040EE8E5
08F9FCF5
E8E7F0E5
FEE90212
E7ECF1E7
F3E91511
F2EC11F9
000B030E
F10310FA
15EBFC12
07F7E708
FEF313FD
1009FB04
EB08E7FB
FFE3E2F3
EDFD010A
FD0FFAEC
00F008E9
0711FFE9
06F2EFE1
0FFBE4F7
0AF5F9FC
EEFAF4F6
0F120604
05F5EAEF
EBEFF912
EEF307EA
F6F6E013
FDF8E4E7
0A010CE5
040DE606
06EFE0E5
01FCFD05
0602FBF3
04E8FF0A
F7FCE104
F507EC14
E8EFF41B
E309EEFB
11E8E5ED
F3E5F302
EC0A0A18
E9E2F50E
F5FD10F5
0F10F8E5
0A11E9FC
09110307
F1F1E6EA
02FEE712
010712EA
ECF7150A
F0EAE312
0A08F808
FE070DF3
EC050AEB
E806FE00
F014100C
FCF203E9
E61010F8
E6F0E70D
F312F615
05ECF903
FAFEE7DF
F40CE207
0DF0E5FF
08F6E2FD
ECE9E4E5
10ECE008
EEF6FA0E
E4E2E6E6
FFEF01F1
E101E4E4
F1FCD02E
E4FDFFE5
FF0B1EFA
2B21302A
DF0FF211
F4280807
201B0016
2CE6C707
FFEAEE00
D11E03F5
F1F6060F
D9F0DFF6
E90C2221
C011FB2A
1418EC0B
FF1C1E0B
07F1F7E4
290AF928
140E09FB
C9F8001E
EDD72C13
DDFD0625
DE2DF916
E3262B14
FEEFF8D6
F3F619F9
F2131612
DDD9E4EA
FFF2210B
2EFE1503
1A0C0B21
23D1FACE
FBF6EDE9
0A0A14F2
18010928
141C1513
F9EBE9DE
07FF07FD
F9151625
F1F602F4
10D8C5BE
FB000EFA
060C0B0D
E3DAFAE2
220908BE
09E513D7
1FF60503
0D0D001A
2219CEFF
2006F3F1
F41F1C11
0F251A33
EE10CFF1
FAF1FBDB
ECFAFA2C
F001FFF4
3D3511EE
FBE7FC16
F5ECC913
BBFD1F12
120E0AE6
0B09E705
04080513
27FE0708
F4E6E5F2
FEEBF10E
F4F8F211
06EBF2F5
0F030801
DC040F19
E0F5F1EA
CBF3FF13
FC080AF5
12D9EF07
FE09040B
24050D0B
E90509FF
C2E4090A
F2E90D01
14FC0415
1006F6E0
0426230A
0DF32D1C
D910EBED
10FAFBFF
F0E70BE2
FEF01CE9
FB12F307
1201F50B
07FF000E
09F20601
0F02EAE0
F4040002
EB2D0DFF
2A1DD4E4
E809F6F0
351C26F9
0505021A
E9FFE0E9
01070CE9
F506170A
112D15E8
02060DE0
000402FA
1B06100C
1C07E8F6
F40B0EE5
00FEFA21
3807FD03
01F2FA19
EBE6032C
0125001D
664001DF
1B230BF7
0FF4DE09
DDFDDE10
362B1E0F
3520100C
FEFAFC05
DF04E6EE
010D08FA
211D08FB
DBED1A11
DF09FD0D
150902E1
1F131EE8
1207E9E7
E6FCE8DC
F2EFE40B
F5E8ECE9
FC110823
0E1FFD0C
D9061EDE
F40B2703
EADB230A
3B27E4F4
FCFF05FC
08E711F8
F8020218
0AE00FF6
21152FF8
CF032BF4
B6022AF9
08F9F9FE
FF06E8F2
E202E30F
ED0BFB2E
1CF22006
100F09F8
DFF91F07
D2FE0BF9
0A00FDEC
06E3EFF9
F61A17E9
FCEDFA17
22E60504
001E1BFE
F1280ADD
201A1A1D
492D18E5
F201E30F
11FF0FE9
010F1112
0D04ECFD
ED1D0BF3
1508E90B
E30D0010
E9FCF1F7
E6D3ECDB
ED21F7F9
DB0BFEF2
14F6E016
02F9F312
FAF0030B
0FFE251A
0108001A
19EDF61C
17FEE415
310BF0FF
DF06051F
DF03E5E9
1C26EC03
0001041C
24F9EBEC
FFF7F1FA
F3010F1E
07EC1603
FFD61511
1420ED06
EE0005ED
02FB22EC
EA10EC17
292108ED
1EFB00F0
11D7EAF9
F9ECEA00
0BFB0329
23FE0FEC
02E60502
FFEAE9C0
E6011A0E
1501041F
06E6F4FD
BCD90611
EAF5D7C5
4BFE22E2
462A21F3
CDEC19F2
16FD1525
14FD29DB
0AF908EF
DDBCCDDD
F309F417
1E0412EB
382AF006
F0F72117
16241F26
19090A07
0E0DF909
0905FDEF
0EF5EC1D
11F6031D
D9E00437
080505FA
1A13191A
2A18FB00
E8F10F18
05F913EE
0A1B0914
EFF10829
FCF9E30F
0E030E10
192F0518
E50CEB14
03FCE9EC
F6EEF3CB
1517E926
EBEAD4FD
17FFF0E1
25FEFFF2
2356382A
FD230509
FBEF18EB
020CD60A
140F481A
BCEAF606
DAC5DF03
F517DDEA
CF0B2406
0AFD17FA
360CF9FD
0DDDFB1B
D2E80131
F1FF0F12
1304E810
1F2AF829
FAE70E0E
F7EDF5E5
0902FBF6
E4EE09E2
000E0D00
0509F1FB
09E80CFE
0806F908
EF05E9FD
00F1F009
0DF5F715
00E9F403
0AFD080B
E6FDFFF3
14E6F103
E6EDE6E5
F5F5EFFB
0DFF04F1
F6EF0F0A
F3E3F607
F9DF04EF
F6F2F6F3
F1FF05F2
F10212E7
EC130DE4
FA140D01
EDEFF4F0
0FE20B07
E8FAE311
E7E9F1F3
E50CF811
0FEC090F
11071413
F8EAE6E4
E61203EE
EAFD11E6
03ECE6F9
EAE9E10D
1311E502
E6F4E7F0
0FECF2F2
EBFAEAEB
F4E8F0F6
EE04DE00
0E0914F7
0904FCFB
06E413E3
05EFF908
F9061414
E1F9040B
F1050BFC
FF0CF912
0BF5FCF5
E8EFEA07
F1E90702
1008FEE6
EA030A07
FFEB09EC
F603F302
0207F211
E6EA01ED
FFFFFAF1
FEE5E709
0FE8F50E
FAF6E3D3
EA1224FE
E5090321
EBE310FA
F710F3F7
FF1D060F
F9E8F20C
E6E30509
1300FD1C
0324000D
F817EF1B
FD1B060B
F40FED01
23EF08EA
14E4FEFF
020F1E0B
0BF00BE5
12E9F815
E81F0009
E1FFF9FA
EDE80004
E80E0D16
FDF7ED0F
0D150A1C
1B141DFD
0DFA150B
F7FF0F10
ECE30C03
251117EF
220A540C
03EA08F4
DAF2F5F7
3B0E22C6
F7EC1F05
0406292E
F2000929
260A1004
F0E3ED13
F50406F6
F9031016
18F7EEEB
FDFD0B0A
1512141F
D0D7F8F7
181307CD
F9151AE9
2B181C26
F8F3041B
E1F4F00A
1FEAEAF2
2213F100
FBF50904
17FD15F8
F1F81210
0DFD0714
E218160C
ECF51FEE
0C12D0E9
F4FEE701
F6EB04F8
2A040CF8
2807080E
11D8FC25
EFF2122B
05091027
F0F7F91B
F1F507F4
26FDE0D1
FDFC2218
F2F70DFA
FAFEEBFB
FF1A05F5
0A16F616
010104EA
F7F81A03
F6E70E1D
20200109
F0041E0D
EEDB1C08
F002EFF6
FDEAEDFF
000BFC3E
0CDC2432
14F2F602
22FA25EA
D7150D0E
E0E82533
E0ECEF18
FFECF301
01FEFF10
0D1A1B04
0D0B03E4
1C1216E9
FA1AFABE
1305D2CE
3B243014
02E2000C
16DED9FF
16110BDB
10E4E3D4
FA03EBF5
06EDEEE7
F60D1724
02E9072D
D5D505EF
EFFC1E20
061EEAD8
3F0FDDE9
0EFA0C10
0107FD29
1C2BEDF0
23FDCFEE
DEC8F515
0BFDE82A
1E330D2D
201AFCE5
E0C8E8FB
DC0DF917
1010EFFB
4717F2F0
030DFA0C
022210F8
0CFC1B3A
1BDD0C18
0008FAEE
F3EAE4E5
24EFFF2B
021E0EFD
13131B25
E8EF0BF3
ED1100F4
04EF1B11
FD15ED1F
FA0BF3CF
1100FE0D
20FDEC0B
F21515F0
E6FAE911
FEFBE7EE
F0EBE0F9
280DFA09
0120F2F9
1728F1F0
F116EED3
1E040F0C
F90D0607
0606F5E6
0E0C2046
172639EB
FF0CFA0C
0D24E7D8
EC150EEA
190616F8
F4ED0817
1C13ECE7
16FDF810
F5E1DD07
0CF9E0BB
01E8F803
11F5EFFE
F1EC0E18
0E14F7F5
1108131E
111D1833
1AFAF9DB
0EEA18FD
FDEB0002
1110F9D2
0E120C15
F60EEAF1
16FCF2F4
0FF9F6E7
FA07FD20
00DB0306
0F0A1914
0AE3E917
E0E20F2D
E6ED0B2F
0207FB0D
1FF60F0C
D2F4F214
E2E402F0
D8FF0E0B
F3160117
14F8EFF1
E0001F0E
0A11DE00
0BF62202
18FEF7D3
FE0F0CE1
FCF50DF4
0C02F51A
FA261E19
E7001221
FDFB19F2
051B0605
E6FDFE0F
1F0B04E8
2A0C0906
DDF90BE6
F5FF03D5
0FE411FB
FC03EAF2
17DCF6F0
15250DFB
E7DCFC02
EEECF7CB
D32511D4
EA201519
103E130B
11FEEC1F
02042512
16FF1E05
FBE9F5F2
24F9FDC3
F32123F4
F401E4F9
1A0B13F6
FE1900DB
0312DEF0
000405FC
E20EC6A3
0CFFD8F2
19F8D4FA
F5091022
E811FB14
1D09FAF3
F813F415
170ECBC5
F8E803D8
FD11FFDF
3018F2FC
0904002A
13FC06E6
1B0426F8
031FEB01
E82C1811
D5F9112F
EB201E25
F7EEED20
35FD171B
00E7174E
F3FC0D27
00E9F609
FAFEF523
04161416
F00212E5
DBEA0116
0C0BD2E9
22160308
EAEA09ED
FBF8F1D2
FF01E2F3
0D04E8D9
FB06FDEC
03070AEB
F3FFFFFD
E8EA10EE
06E7F3EA
18E901E6
08020D07
FDFD0D06
110A0D03
0E010D04
1208E309
E715E904
0F11F1E3
09F0FAF1
03F4E30E
FA11ED0E
04FBF307
F2E5F1E5
14E4EAEE
08EA1107
E8F4E30F
E4F80FEE
160A16E7
E4E9100E
EEED1012
E5E80EFC
03E709F8
EF0AECF2
F3E71311
FA13F9FE
F30AEF0A
EE0D1308
0FF3F0E3
F1EEEC02
FC0306EC
0109F0E7
0CF9EDF3
EA0A11F9
F3F911FE
EFEA0C10
0BFFE214
0D04EEFC
F8FAF90A
030D0BF7
07060F08
14E5FCE4
10F0030C
17F5ED0A
FC0F18EB
12EB0DEA
02E8FBE9
E6FA0C04
010E1114
F6F7150F
12EFEDED
F3F5ECFE
E4EDEB05
000204FF
00150FF4
FE0907F4
FCE9F1E7
FE15160E
F1F4E3E6
FC110E14
FBEC06E9
E500FCFB
DCE3FAFC
F3F20019
EAF80A15
F8E1E30D
FA0E0521
0BF7FEFD
0D0CFD05
F7F0F6DD
16E8F6F2
110CE808
011020FC
FADC00F6
C6D2E20A
12F5000C
08EBFF11
1FF72E1E
36121B07
2411E8C9
1E1515F0
C8DB05FD
E9ECE519
180DF70C
E8E32504
F904141E
00F914F6
1B01FAF3
06FAFCEE
DFEEF8EE
E6EC090F
ED152533
F51518C8
1AFBD3D6
12370D0E
211B0822
FC10EC31
E4FC00ED
020B3005
002A0F13
FE02F5F7
EEEE1A04
341909F3
12160115
DD180410
E0E1FEE6
3424F900
F0F5FAEC
E3F0F5FD
ED08DFF4
2C430CF9
1B1017FD
1EF112FC
E5F3F22D
2D191017
EF01F422
DFEBF1FF
E6E2EDF5
100418FD
1407FEF2
0CFEF6F1
D9DB170A
E2E42218
ED1B1CF5
1300F312
FA14F8EE
E5E3E602
FB11FC05
FA1124FE
E3E6FDFD
FE1B1CEF
E4FC1C2B
C5DBF7EE
E1D6C6E4
E2F2EA00
080E181A
E6F1010E
CCF509FA
D6C7E40D
F00F06EE
1F1B1311
E7F405E5
2B2C17E7
18F4F1CB
F00F06DD
D5E3200C
DDF0F7FF
EFE6FD05
0FFFF1F4
1704F903
05F9FA03
F81517E1
E70CE80E
CCD2F0F0
011E070A
0BFB0A34
E5CFDEE6
F1C0DCC8
091A06F7
2A11100D
D9070217
DDFE0DF7
F1FE131B
1431131E
E0EEE5FB
EC0E02E7
2C30FEEB
1C0DEC00
D809050C
CCCCF6C7
12FC06F9
1D23F4E0
EDF81702
02FBF0F4
301E1BEA
2BEAE0EE
172C1330
220A1641
361533E3
1F13F0F5
03F1F937
E009EC2F
D4DE16FE
F61103F4
0F0BFDE0
F6F52C0E
F9EC1509
DBFD0D09
F9FC1119
F9DFF719
F6F4DFEC
E909031F
1AFC0DE5
02E3F2E3
10F5F00D
E201E5ED
E8E1D70D
F801FA02
0E190207
0A0A04E9
F800F3EE
F806D8E4
17FFE8EF
16FB0413
ECEAE9FA
190DE7E1
F1070C1A
F2D4F2E5
E8F2F607
ECF0EB0B
14F11B08
04D80E0B
0DFBDDEC
07F0E9EA
EFFFFDEE
0003EAF7
F4FEEDD6
EDFBDD06
F3FC090E
EA02E6F5
FDF0FB02
EEF20E01
EB010EED
E20FF3F8
F9F0E4EB
E705F1E3
1AF6F3ED
F2FFFCF5
F5F0D9F8
FEFAE501
18F9041E
160911FE
08F0ED07
F9E5FCEE
0AFEF8F0
E911F9F6
03EAE1E4
E80FF101
F7F4FD08
020C04E5
FD15F4E5
E0F71004
02EE0807
11F6DDF7
0303E6FE
09F10AE8
13FB00DA
020BE4EA
F3E304F3
FB14E3E5
FEEA06E9
FF16E3E7
E211E9EB
E9EFF704
EAF60505
E9030511
F4F9E6EC
0D04E7E7
E601F7EF
F8050609
06EB0FE6
06F014F8
030AFD10
E7F8FDF7
FF1216F2
FEE8EEF2
F6FD07E9
F706F707
E603E9EA
00F0FA01
F201EA02
EBFAF8FC
0AF3ED0E
F3FE06FA
1414EB0A
F9F40714
F2EBF8ED
FCEA0602
FC15F611
F314E709
E6F00BF3
FA131608
01E7F513
09EE14E8
F011F30F
ED141506
09F4ECE8
EAF5FFFB
ED0BF7F7
F3F5FFF6
E5E5F4F3
FF0C15E5
E50CF409
FEEBE5F3
09EF1402
F9FBEDE7
14FC0409
0BFCF6ED
FBFB0CEA
F0F71113
010FECEE
EA0803F6
0AF40401
FAF107FF
FEE6E9EC
EB0212ED
05FFFCFF
13F3FF12
01EEF50A
FCF2F7F9
F0001412
03160204
0706EE0D
FF13F4EC
F310EC05
100200E6
F3E91408
E6020FE7
310B350D
FD190502
00DCE9DD
1B1618E3
F0E5E800
F91E0518
02100401
1F1C07EF
0F1B0B1A
FE000AEE
13080011
02260810
0BF8E301
0503E3FA
EBE10F21
F0EFFF10
D2FDF51A
1DFBF83A
FCF2FC1F
0B03FCE1
09E8EC01
1810EF02
FE190905
DED7E227
F705EA10
E5060409
FD1B09FB
FD1CFA16
E80B1FE9
09F514D7
130C17C0
282310DE
DDE9F1FD
F6F9FE19
3810F7E8
2006F5EA
C4DBF907
F000F1FA
081B1F23
11111325
E5F0FBFF
FA0DF519
131AEAD6
27140BFF
C8110CF9
E1F60402
00DF17FC
02F424F0
E2F31310
060D1F12
0DECF0F4
2D0404FC
0204FA1F
F0200E05
1D1AF3E4
361F0ED7
E2142006
F5120404
290E1A30
E906F111
FB09021B
CFFD04E6
0FFB09F4
06121BFA
F6BFD7EF
01E4EE29
230D07F8
15FC20DC
14F40128
02EA0CF2
270706E1
03022D0A
39E6CEF4
E5030403
1DF50EF7
F2060F12
07FF0634
C1F3EE14
0FF5F107
D00E10FB
05F1F911
ECFA2446
FB040C2E
1522E502
E8F71017
0F0DE40A
F00D1CFE
E2FE2201
F5DEF7ED
04100819
F70902ED
1A22170F
E4F0343E
0006FDFA
F429F5E3
120A0406
F7F1F6DB
F311F42B
26FC08EF
F4230DF7
FEFDDCEF
F7E2E1F8
F511FC06
0A01071E
EED3FBDB
06FCFCF7
0106090C
1B0B1730
13EED6CC
EEDBFFFA
09F3F3F4
1B0907E0
532AD8CB
231D0010
FC140801
0EF00208
F901D2BF
181A2D04
251FF4F6
F70211F8
423A15DC
280AF507
F2011403
101308FE
0DF3E2F6
17FCF812
0E20FDE4
061DFDE1
013D3115
000CFD1F
F5D0FD18
FFFAD9DB
02FFFE07
11F228E4
FBDC17FC
EF040FF9
F22B13F8
381E2F05
1DEB0F24
EFF90902
3821FEFD
4E2508CF
E3E82DFA
F2E91418
F6EAEF0A
EF200411
EF002012
F3D4FE05
280AF3E5
173425EF
CFFC3208
E4F911F7
F8191C0B
120D0D0A
1C032014
1A10F4ED
09260AF5
FC04F1E1
17F5E4FB
2F330315
FD0BEFFB
FCD4D60E
1D1D1A09
25EDF0D6
DDFE1313
02001014
FE150DFB
E2FA2032
DF061AF1
EC020B1D
E80215DE
2FFDE5F5
FAE52B18
FE0D0822
0D2BE914
1100FFD4
C7C90638
D6EBF3F6
0A0CF419
10F8F1DE
C7FA0C23
C5EDFC26
F115E2F5
2AFFF10C
CFFB0600
080202F9
24320B0A
FAED123C
EE0F1DF6
100ADE00
09F80529
16271D0B
150AE802
F2FC08E9
10EBFD0A
13F6FE0F
F90E07F2
E8E71215
F206FB09
F50112E7
11E8FE00
E6F0F2E7
EB021501
EC12130D
0D0EF8FC
E8FD14F6
EEF8F30D
EE08FF04
15F201FA
E913F7E7
0C01F80A
1710EDED
FFF7FC14
16FFF9FB
E8FE0C03
090706E7
00E917E6
E70CF3F0
0AFCF9F5
0FF3EA03
0FEEF600
03E8EFFA
0703FD09
E8FCE90B
F8E6F40A
F605EC01
F2FB01FC
11FD0DEC
F9FC0008
F515E9F0
07FFF3E6
0DF9E708
13F1FDE9
EB1706F3
FFECFA0A
EC07F814
07E8ED14
F8E9F2F4
14F104EF
E805EB0D
F7F2FA0D
F7F2EE03
F3EC04F8
071013F7
EB060EF1
FDF3FE04
070CEB04
FAF60BE5
E7130EEF
02EAEB12
04EB16E7
07E707EA
0CEA02F7
09EDF30E
FEEEF6E7
F2F0F60A
08ED102C
E7F70B02
1205F6FF
01FD0406
0E1A1B14
4C2CD8E6
020408E8
E8EF0EF8
E5CFE6E3
C912F604
1A16E6EB
E20AEDF5
C2DA1212
D507FB17
2B370000
E319270D
0F1A2617
373B24F0
05DFA7C1
E9E3E606
F51E3F23
0F07252A
410EE50E
EFF428F3
F9FEFA0D
2020FCF5
171AECFB
0A0210F2
11FCEE25
060EFAE0
05FCEBE6
EDFDDEE1
DEE60612
F92E03E3
1D0DFAFE
EF1506D8
0C11D9DF
0100E8F8
3B1B160F
021EF8E3
C3F2ED23
02F7DCF2
01EBFD0D
F005F9E3
EBEEF3FA
F5E4E7FD
0DF4E800
04FB12EB
4C35FCDD
DCF1E90C
B9F416E4
0FEFFB15
0BF1E121
FED0F804
DDFEF5FC
F506F809
1421F4F9
0CF3FBDF
0FEB051C
FF06ECE1
0F13E706
0313070B
F817F7DE
0F0508F7
E3DADCFB
E9E20A1B
E9F00C26
02D9F107
0CF01220
13F8060D
1CF0130B
060CF8C9
1812F511
FF0214FD
F10D0714
EED90117
2A0A2916
E706120D
E0E91C04
F4EE13FD
230E2008
F1F52415
11F4F229
F8E9CCF7
11E7050F
0F031815
C8E208F9
F91610F1
1204EDFF
0103160A
170DF50C
EC180CEC
E7FC290F
0F251B27
0F291DDC
052518CE
3818FBE7
22340724
2906FA14
12FBFB17
11FE03F6
100923F2
E3F1E504
E51020F9
1A02E40A
E8E2222B
2AE3DFF8
01F0E60E
2416DDEF
1604FE10
25ECC91A
09E3C6F9
E90908DE
00FF0FEC
FDFF0411
07DED50F
E2DCFA16
1504F0EB
1D11F9FE
1918F0D8
542DF3FB
1A04EB02
FEF3DCF1
F6E902FE
00F0F508
1C0DECFA
22E7FE0A
120CF000
0216F207
2EF6EC06
1C13001A
DF04FE13
1419F9EE
F7E0FA25
E322E507
BF093D1F
11100311
190CEE16
07ED0009
2B1C2310
F0F9F008
E3ED15F9
03EBED07
4F2DFE26
EEF70613
EAF523F5
D3EB09FF
FB34ECC0
1C10E8E0
FDDB03FD
E1EA1D21
2A3AF0F6
21FDF101
170C01FC
F5FFFE08
F1210A02
12F5D9EC
ED140E2A
251900E6
F126284D
1E0B1DFA
E908CDE4
0A0CFCF4
D5F7EDCC
17190802
FB192402
E9EA09EC
05F51614
111D07FF
25FC1510
FBEB1AF4
030AE9F6
F30A0227
F426DAE7
E7D7FEF3
F817E5DE
FCD1E9EB
0501E1D1
19E2E0CA
C9CFFBDF
F0EE2CF5
381DF60B
292709D6
E9FBFB0A
030D0B18
07E9EEF4
D0DD0C13
FC24E910
F40608FF
FB201B0F
080D0805
DDDCF7F6
0EECF7F8
0ADEE6DF
E4F8EFFE
EBE10004
09DCF103
E3FCF102
06EDFB10
04E4E7E3
EF0303F5
FAF00AFD
DC00F20C
F0F309EA
0BECE801
E7FDEBF5
E9E0F9E5
EDE20EE9
F3F9E2F9
E3FAEE02
DD070208
E6DE0002
1905D3FA
09EB02D8
F607080F
D9DFE605
E0EF05F3
DBE604EC
DAE9FEF2
1207F9FC
E2DEE3EB
E9DAEEF8
0511E7EB
E7DFD107
EDE407E8
E8DC08F7
E1FB04FD
E4E3FDF7
0712F2E8
EDF4E20A
F8E2EEEA
E5EFECEC
FFF5FBFC
F0FFEFF8
F8F6F3FF
E3E3F4FF
DC07F2E1
0FFF0BDF
02F6E5E4
E3E4DFF4
F5F4E1F4
E3F0FCF0
06E7E302
F0F5E5F9
D9FEE802
D6F9FBF5
00FFF9F9
EAD40B0D
F614D9F3
FE1600F0
EF09FFFC
F9FAEFFA
06E80BF5
EC02F308
10080804
F2EFF511
0D030C16
10E6D6F5
D7B8E5EF
F5010823
E0BFC4F5
C4F207F0
162E222D
FEF901E3
390823DB
D5D8E9E7
00BB1212
D312021B
C81D28D0
BC121DE8
AB0710E6
C3FE2E1C
EBFBF213
04E5FAF5
2A14F127
BFFEE9DC
ED1C05EA
A0FCFFF4
B4EF0003
ADFC1802
0C0A0912
EAA5D0D7
F30C0DFC
FE0206FD
FADC1729
FF1EF3D5
18F90A10
E1EEDABF
312C323C
11E8E91E
0104ED19
0C1C1F40
23250103
F40402EB
DFDEE614
D1200CFB
25190A16
DAC304EC
1C1EF317
0BE5F61F
1D23110A
02E50C1F
F103000B
1828FEF7
E9FA3C1A
2D23362D
D8170DF1
F0F4D304
C0E21F1B
DFFE08FF
1DFBEF02
E1F0FCF2
1540FA13
DC11F9FC
E7DED4E3
D8FAF4DF
150E2304
3A12F312
FD0AC7DC
DD24FB01
041A07FB
F30E0913
2111140C
E111FA06
0B18F7FC
15EFECFA
E63107EF
BDFD3F1F
FCEBEB0B
07EC1609
1808EFF5
2104ECFC
EEFA0DF2
CEEEFF24
FAE5E111
0E08F40B
0B010120
E80CECD2
F0F40AD0
DC331602
01110EF8
DBE106E2
03FDF0F3
1E19EBF1
FFF10A1C
1B1321E6
0117FAEC
EF0CF6FD
E4E8D4E2
FA10E0E0
0C17F0F5
C9ECEE1B
221C000C
081AF80A
E3EF0EEE
FC0609E5
F823150A
FA2B210B
0611F1FE
F50AE319
222A2524
1600EAF3
090000F5
DE0C1406
01131C05
F2201324
D5EE22FD
172C02FC
4B10EC1A
0C06E7FC
FDEEE7D6
E8F300F1
2425FC2D
3C1917FE
0B211EFE
C90211F9
0E0CF2E7
E2271410
E7E71100
0B09F7E9
E810F7F7
12FF10F3
F738EDF8
FB0913FE
1510E30E
F4F3EA03
ED06F4E1
FAF802F3
E2F20EEF
0DFD08FD
F3F8E1E3
E60BEB0C
FF0301FD
05F8DCFD
E6E2F10C
FEE0E6E1
E70DE0EF
F6E7ECE2
FA0BFFE0
0DE9ECE3
E4DEDEED
F50E12F6
F6E7FFEF
0AF5F811
F2E8E7F4
02E2F7E2
0AE5F4E9
FBEFEEE3
0904F901
06F6E7E5
F5F0FFFF
15EC0FE5
08F2DD07
EA060DF6
F2E6E0F2
08FEE912
FC0ADEFD
0D1407FC
0DF6E907
06F3E1EA
0BFE0201
050EE9EF
FBE90609
E3E3E9E9
EDFEF1FC
0AEAE308
0811DDFC
ED0CF8FA
00F6E3E9
13E9FFFB
FEEADEE8
ED10ECFD
DDE706FA
0DF10EDD
F9F914F5
0407FC0C
E5F1FAE8
0BF60403
EF0C08EE
FD10EDF4
EA050309
08F6E1F3
F9160809
F6E80AE5
EE0BFD07
F7F8E5EF
DDFDF8F3
09F708EB
0EDB02F2
2C320809
0E08F5FC
F51BF0E9
F7EDF801
0FDCFE34
04FAF014
0F274426
FCEB0417
E1DC05F8
1E0BEB0A
1836221A
AACEE00B
E8DEF812
D40AE4F9
140DE6F4
F6F1FCE4
E5F1120B
0AF4151F
211DF7FA
97D8DC03
E3D80112
06EC060C
E9FEE9F1
1D051E0F
02F40206
04091424
F50B12F9
ECE91916
0A1F12FB
E12EF5F8
FA06270B
0E01F6DC
F8FDF4F7
F5060B0B
E808FDFA
F61E3014
E909EFE7
08FCFEF6
01080A22
240F220E
02E7F7F2
FEEAE70A
260D1B25
06210CE7
F416EFF1
FCF4F00C
F2101305
2E3A18DF
33152812
FA06E510
03F21C00
150004EA
11141616
39FCFC18
23FB00FB
05250619
FACDDFE1
E20A1909
E82EFB03
1217392E
F9063406
07110AF1
FDE10D03
EFE9E726
03FAEF00
091A2704
1B0B2F31
F70C01EE
EEF510E9
DDE7020B
EDC9E2F7
EBF9F7FA
F2210C16
FA09E5F4
FBF3D1E1
C6D5EAFE
BBF416F1
D5F106FE
17DFEAD8
090DFFE8
F91AE3BB
0219E9E8
E1D91B5E
E7FF08E3
D4DDE5EB
F90EE0C2
260C1E05
FA19FC17
1300F107
1201EBEF
F6D8E1FB
02DF0AFD
171E13FF
0A0BE6E0
F6E4D6CD
0C1F152E
ECDB221D
E6F82022
0005FD36
F2FD0FFD
0D1DF9EE
EAFBFFD0
0F06D4C2
21280FF4
1E0908F5
091E0715
CFDDF4CF
13FAF913
F8072B1B
090D412C
EA0F0B2C
1A181D1E
37FAF52A
FE2C2A35
0C1D1940
210301F4
1715F4F9
0007361E
D204021C
F5F0DFD5
FF201713
D8F111E0
01170A10
05D90115
F80A0E0A
D4110807
04F9F01F
382530EF
321101DE
FBE1F8B6
FD2C01F1
0105E5EC
0CEFD8E4
1F15FEE8
281D0A29
1421161D
F5F7E50B
090AF91E
1A2806F5
2410E40D
44FF03EF
FDFB06DF
D6E0E0F0
000D2106
03E81302
F20CFDDE
36151003
091914F8
0607DFED
0703E3DE
CFE9E2F6
F9131204
EBF2E2ED
08E6E50D
17202318
E7D4E5D7
D9C7B2BE
DF03E20D
26142006
EA011215
18DEF10A
0EE701E1
07120F0C
DAFCE51B
EA090EF4
F1EE250F
0412F506
EAF8FCF6
0716060F
F019FDD6
2F0DF8F6
E1EF0904
00010C1A
E4E101E3
1BFF04F3
B4E61B28
E30A2631
03DF0003
14EC03FE
CB08F309
FD0E2316
21F300FA
231416E9
DAFD110A
D1150E10
111F0013
0C2809FB
D6010000
D513EDF2
FEFA0BEC
07E000FE
0F011915
0C19FE13
1E051AD8
2B27F2C6
17F409F4
2E332C17
10FFE5F3
23D4E516
ACDDF2E3
F61CF1E3
11ED340F
C3FE0CE5
E8E0B3DF
08F3DD0A
FC1CF10D
DA00E6DC
090CF900
320B5448
FCEA030F
DA03E099
C9C6B8FC
1AE522F9
CF01D32F
A001D5E6
EFE612E8
16160B25
13111B2E
F0F017E3
0007043A
FD0BD5DA
E4000BFF
F0D1374A
E00A0806
1CEA0708
490EFDEE
540B2209
ACEEF6FB
1E0FE40E
1FF2313D
17E6E70E
0706F217
F32C1C12
0C09F3F6
11FC12F5
E3120916
EEE9B7F4
2EEEF6FA
4C1B07F2
3C3B0B05
D8EFFA27
FD1804F5
42261CEB
1C2E4707
F2EB1817
28EBE0F5
16070E20
C2D1F2F3
31CEDEF0
EDD0D935
CDF7FEDD
C5FD0E04
D1FFDC05
0FF22D22
2901F324
1F0CFCE6
27201D19
04E100F5
1310E7D3
FB0807F9
0FDFF026
2221E3DB
001A0A0D
17FDFFF4
1B0D120E
01DAF610
0E1819FD
0BE2E8E9
131CC506
1811FB0B
ED0CF5FF
23122420
EFD60C49
1113FDF3
EF041ED9
32EEEE06
2E03F139
DE11F01A
CE07E910
031516EC
D80E1B1E
04DAEDE4
1A111FDD
F8ECF71B
FACF00F0
E6EC0DEE
1BF91B42
FA1102F3
0D20EFDA
080412EB
382BFBD0
F2D0EC0C
F7FE1B05
0BD4FF09
1E210E2E
F5010906
CBE41015
10D8F3D3
220008EE
F1D4F1EB
F4F6EFD8
1CF5D11D
32FBEBCC
AE05D4EC
E1EEE1CD
0C1B0508
21F001D8
F506F329
E70A22F3
10FDE5E9
2A180AFC
2DD80E0C
06E9FCF7
0411E213
13161BFB
F103F6FA
FAFAF218
0DC71109
01E20C16
0A1ED3CB
410FC5A6
11EDE0E4
18342DFA
F6E2F0E4
02031012
F815F41C
0A0400FC
0105E2D9
0A02EC17
2604081A
F4181404
F3DD02F1
0DE5CDF4
380ADE07
F6E1051C
02FEFE0B
21E52C2A
0A08E4D9
EB04D9E2
EDDC23FC
2AE9F821
0F0A100D
F2FED511
0F0FE2ED
F4D9E311
F523171C
11F70528
E8EEE328
F4EEFC31
09FE2B51
13051A0B
04D601EF
05F4E3E1
EE1D1B19
161E22F5
EDE6F9C8
EFD31309
0EFDF32D
E818FD16
0DFCE9CD
ECF2DD12
0133F52B
0FFB21F4
16220AF0
10EDEAB4
F7EDFCEE
0F0B0305
21EF1DFC
160718EF
FE02FFC6
F6F81AF1
0E00FAEE
EF2A2DEA
0C03DAE0
072AFC11
1D2038EE
00071C16
1F0701FF
00E2E7FC
0C020233
D9EF0110
EAFC0F08
04051E1B
F0F7F6F8
F5F4FB0C
F4071C0B
2317291B
0803F405
1C0FE30E
0B141215
FFDED5FB
F0ED0A0B
D21ADDF4
E802D511
FC22F5E2
041C17F2
E9F00C15
E90CEFF1
F7F603F5
08FB15EF
200AEBDD
F310F9E8
CAE90E2E
D9F3100E
E3F9ECFD
0F29E1E3
F8231F01
13EEE618
17F60A00
EE0FFBEB
F8F108F6
0CE2F0FD
0C10F0D1
E9F80104
C9EAF2D3
0FFC10F9
11112C01
1F06080F
05130E3B
0B0EEEE5
E2FD03D3
15F2E9FB
05FB0DF5
12030100
F10BE10E
1302190E
E7081B0E
1C22010F
EA0C2313
09130E1E
DAFF0610
FA09210D
1F190934
09F0EF23
1CFC0824
0CFCED14
17091FEE
F8E6341B
E6F91126
0CF0F0D3
E4171002
D3E7EAE9
FA1DF600
0EFC0CEE
15FF0108
03FDFBF7
06031C0E
EEF9FCF0
F0E3E4F8
10100DEB
02F7F70D
F8E703F7
E305ECEB
F8E3F4E6
0AE5150F
0201FCE8
06E402E3
F4E2EAF4
0713E4EA
0B06F20E
FBF51307
ECE40806
0E0FED07
EE1411F0
0F080F0F
0EF5FAE6
F018F303
FEF21710
FDEE15E4
FDEBFE12
FDF60111
F7E902F6
F10C05EE
0CF2F800
EB0D0C02
FBECF60D
F506F7EC
FEECFFEF
0EEBF209
FCF404E6
EF1106F4
E6FD020F
FBE60DF1
E2F8E408
150AF712
FB04E710
100009E1
ED080AE4
06F7F8F8
EFF80705
EA1AFB03
F4F605E3
0A07F2FA
EA1004FE
04E1F1FA
EFE5F9EB
FD01E5FA
FA0308F3
04EAFCE4
FEFE0EE2
E5FEE5FB
10E203F5
E20F1108
F71103F4
07E0F1FE
0304F7F3
F412ECE4
EAFC07F0
07EAEC12
FEFEF211
00E40E0E
FBFCFED6
F313E6FA
02EE06FC
DEF5080A
0215F622
110BECF5
EF0A13F4
011B20E0
03F4241B
20EBFD05
21070503
03F22105
DEE6C802
1224FFE4
1A210A06
DD140016
0A230719
F4FEEDCF
FF1F30E3
BCDECBDB
2CEEEF23
21110DEB
E7F01906
D8FCF3E3
0311021A
FB0E13FE
15EA0CF1
F5E3EAEC
F4E5E222
01160719
2B0E15E4
1933E7CB
FF1A17F1
E7240E1D
06FAE3F1
100D13E8
E4F80614
0906150F
0C10FCD3
FB051917
F40F16F6
EDECDE07
E407EFDE
EDE8F0F3
201F0EFC
E5100514
F6DCEEF4
E7FC0F15
46251F0C
FC0E1FE2
05C6E40D
E4C9F7FB
30233E11
FC070320
F0F803E8
E9EFDFD7
E7030816
3414070B
431924FD
E1D2F916
F0180A25
F5FB1A1F
FE0F09E4
0BF100DE
181A1DFB
2021D3C9
1901DAB8
FCFE2403
12FF07F5
1E15EAEE
1E2E2403
2220350B
1F1FE70C
10E9E5E7
FFECEE0D
F2231207
31121CEB
1011DB01
281FDE03
22F6F4FA
DAEAFFF0
02F70505
1A20F6DB
FE11FECE
FCFC021B
15FFE610
1A1CFEF9
FEEFF901
FB02E804
ED0FF8F4
F2FEF20D
03262F14
F2E9F6E3
FBDBDEEE
FB1E1C1B
E3ED2DFD
DEE9F5F2
F6F41CF2
E8FA09EC
F5ECFAF6
FBEB00F5
E901E4D8
270708FE
090407F8
F605EBEA
DD040809
1F1FF4FF
171F091C
FA2514FA
FA230FCC
05E9F8D0
E212250E
0B062621
1D20FF10
ECCDE4E2
FFEA0AE5
EAF5EFE7
0B300FE9
0CE5FA02
211C081B
E5020FF5
EDF422F4
EAF8FC10
1619FBF0
FDFA041F
0FF90BEA
041BF808
18051B0B
EDD0CCE4
FBF40609
090B0A16
00050022
F7E90AEF
EFF0F20D
EC0DED0D
F2F6FCFF
3500EFF8
ED120C0C
0CFC1008
EF0DFAFE
DF00FAE8
F5C8140E
FEFC03F5
20F2E812
060BFCE5
F3FA0CDD
180CF902
DC1712F2
F007FAEF
B8D1EB08
1305F3DD
1AFC1514
08FF0608
0A0B1304
F715FD01
EDED0EFF
04D40CFF
0DFB1C32
F6EAF10D
E4F70A04
2A0BF3F8
1C121D1A
F1FC021C
E3FFF81E
1E1F3013
132404FB
00DEDCE0
E60211DE
1918EDF3
21111316
0CF50511
E0E60A17
2E0DFFFC
002A25DE
FFFB15F7
FC2610FE
333416E0
2D1DEE03
E11216FF
DEF0FBED
272D0403
1FFE0A06
F7E01329
BEE50D08
0E19F3EC
04EF19EF
F8E40CC2
DB1CF1EB
13FA0A0B
1B0AF9FF
EF020EE8
0808E7F7
EC17F010
0DE31008
051104F7
0CE4FC31
010211FA
09FEE70A
EFF70617
E7D4D406
EDF90D0E
E60B03F9
E214D2FC
E415F0F0
0210E5ED
06180A02
0FFAEF13
0D0F0FDD
00091208
09EFF8EC
07F4F7EA
01062725
FD0C0EE5
00F30D0C
08F0F1D9
FFF81AFD
041F1E18
18170F15
05E9ED0F
01FC11F3
10E10A02
FB01F2D3
F809F3F6
EBDECF08
EE05130E
01EE01F6
02E9FE22
EC090E25
30FDF2E7
FB091E16
1AFFFBDF
FE0DFCF4
282A17F7
050AF70F
05171BF9
D2F305E4
00EA11F9
0F100A1E
F6160418
0BE2F634
FBF2132C
03E7F42E
0FF0ED05
0FF02437
E1F3F91D
0DFB02FA
D90F1A35
EBFC0B39
0CEEFADC
E80708FD
F604F5D6
0A1E00E8
0BD7F3F7
160C09EC
F9F2EBF8
0209E307
09E60AEE
E501E5FE
E6E8E70C
06ECEBE9
1200F2FB
FF00FCF0
EEFB11E5
050FEEF2
F7040504
EDEFF0F7
F5EDFC04
F7EFF3F7
0F081604
0004FDFD
F2F0E205
EA01E8F9
0E0B090D
04F0F800
E5E10409
E8E804E7
F0EFEBFD
0CF8F806
E7020D0A
EDF90205
080BDF0D
E9E4FEE8
05E4EDF1
E30D05FA
00040615
FE00E2F6
F601F0FC
E3E214E3
F407EF06
F10F01FC
05F9EA0A
060DEF06
06DF05E7
F40E080F
E4E4E0E7
170506FE
FD03140C
F8F5EC22
06F201E4
10FFFF0D
F2F30BFC
F1E4EE07
0300F90E
03FD02FD
F6E80200
EAF901EC
F9FCFCEB
E00C13E7
0EF602ED
05FDF8FF
08F7F6E3
06DE0FFE
06EEF6E9
F108EDE7
0CE6E107
ED08EFFD
111005E3
FF10FDFB
0EE9EAFF
0FE80206
532C1006
FF15E5FA
FE18EDCC
DBBFE6ED
1804050C
2303F313
1111F7BC
0E1125F9
DE11FF08
1315FC0C
1118D8EF
FA1A05F9
08001A1A
2E170B28
3C18E61D
281F0A1D
FC1D2A0A
16EEFF11
E1E7A0A8
FD19F713
1AFD3715
33F62D28
3513112C
24F71829
F21A01EE
FCEDE816
06ECCDE5
F1FB02F2
210DFAE2
0AF4F010
04FEFEFF
100EF906
F81F0DF7
EBEDD5F1
D7F8F7EB
FAF1B1A6
23280CE5
011C2119
06FAE2ED
10F5DCDE
EFF80A05
04D6F0F0
D0CAD0E1
0003FBDD
08F6E3EE
D4D5EAC9
EFF1EAFE
0DECC9BA
113C0E11
CA01F3E3
CACB00F2
F8F0F628
08FB19FB
F1B9D5D9
D7C5D1FD
EBFAF2F3
F0E40B04
D9DF0EFD
F51DF1FF
2817FEE7
1C151B1D
2217F50D
031DEC12
11FEE4F7
E8E80B09
ED09F90C
EDF7ECFE
050B1102
E3FFE503
ECE6F2E2
080E14FC
03F101FF
110DFAFB
F3FF03F1
01ECF40A
FF11F0F0
F5FD13FE
EAE10711
F8FE080F
E2EEE1EA
F1010802
06EF04E7
140BE8E6
0EEBE100
01EBE8EB
FDE80F07
EADCF0E4
EE08F2F7
E6F102F8
F000E9EF
04F6EF0F
FFF9FA06
DB02F6FA
F810F6E7
F6F8FBE7
F7FC0AE3
E5FBEB12
07EE0E11
02FA121A
0F01FFE6
E5EDF702
0A07E0E4
02EBEAE3
FFEF0200
04E110F5
E3F0D7EE
FBFE10FE
FD15EDE8
0206EAFE
F0FCE3F2
F6ECEDF2
15F000EE
01FBF9F1
F601E2FD
0AF309E1
04F60303
F504FDFA
09F6E506
FC0EECF1
0DFC05F8
0A070DE3
F906F9ED
F5F4E7F5
01F1E2ED
F5E7010E
12EBFC05
F9060BEE
F3FCE909
F116F7E2
F0F2FA07
FDE506EC
EDFAFEEB
00EBF8F9
F6FAF007
EAE5FAEA
EEFCF301
E4EE040A
08F9FEF6
F307EFEE
F6E90DF2
E3FDDF0B
07F5E1E3
E8EA0B05
ECEAE80B
01FBF7E6
E5FEF3F7
01E00FE9
051608E0
EC05ECE1
ECE7F9DD
EFE3E7E4
F8F00DF9
F503E002
FBEDF5E4
E7E7EF08
E90406EF
E908F3F0
0C06F008
F8E5E900
E6DDF8E7
F8F719FD
EE0BE9E5
F0F50912
F1E91501
F9ECFD0B
E8E4F1EF
140DF616
E7F70DE8
DEE3DFF9
F5F8DEF2
FC03090C
0AEFEA0E
E80ADEF4
09E5EB04
0AF6EA0B
06140D01
F2F2F5F0
0BF2EEE5
E6ECFFE5
EC0E03F0
FBFDE6EA
010809E8
EBDEEAEF
F708EFE4
FEEFECF6
0CF0F2F2
ED0AF2FB
E909FEEC
E1FBF3FD
E5E001F6
E80B08E6
15EAE1E7
E7C1D90E
0FE2FAED
222AF4FD
F3F51A1C
F80BF018
051CF5F0
1421F70F
D4010F16
1007F901
F40EF51E
EDFAF1F5
F70419E3
10190D05
F9F9F901
2C02120E
251E1604
03101618
FEF6FB1D
1A00F11A
0C010E25
F3223714
D9F70F1D
2A23FAFE
17160CDC
11D9F5ED
14180C10
0BE5F6FD
03F6111C
15081A06
17F52219
09210A50
F5E2FD1E
02E9C316
271BFF0D
E9F9E8F9
041A0C0E
22FACEBD
04100D0E
F6F6E2F5
0C18E6F7
0DDDD001
FB0FFA13
0F08E427
D0E7F9FF
1306D8FC
1E061DFC
EBFA0622
F21216EC
1DFED6EB
F8EEFEED
FF19FCFE
1AF7112C
13DBBB01
1BE806D7
E714122C
0803F805
5622EED9
26E6170B
CB0BEDE5
0A2C26DD
3FEEB7DA
17F6CD06
FF1EEA14
19FAFAFD
0FE7FFDE
0DE806D7
1404FAE6
FBD9BEBD
19F10DE9
FDE814F4
F2F1D7EF
04010614
19EBFC05
1100F508
06FD1B13
0B000CFB
D709FF03
0AE916FB
F4F21312
F3F804F5
02FE05ED
EAEE281D
EBEE12D3
2318241B
D0E6FA12
12042E0C
F8143732
CEE3040F
250403D1
061A01FE
E4FEED08
0A03F600
040A0AF6
EAFEE218
0502091A
2C1B353B
17FECCD9
081500FE
EDFBE4E5
FBFB07D3
E81C040E
FF14110A
0A161EFB
D5E6ECEE
090DEBE0
DCF602E6
EEC0EBE8
08130910
FC05E0D7
FDE2E507
EB02EB15
1117ECE8
4921FAE7
FC06FE03
131AEA15
201D19EE
0819D7AC
06EBE0F3
F9E1EAE9
10E9FFE7
10262512
F2D9100D
1020182E
F314F910
FB1D20E4
F509FF15
0D1D1803
E00A03EF
F00FECEA
1BFEDB0B
02091B13
CDE2F01F
040FE3ED
FD25060A
EBFF0817
AEF72809
03E50C07
26ED0D1D
3613180C
2814FDFC
050EF9E1
08CCF7FA
13F31E06
39180205
060EFCE0
1B0CF1D5
12DDFDD5
CD04FA00
232401E3
F5FD00E7
0FE6F3E5
230C1CE7
15F1EB08
110E2202
F4F70FFD
021AED0C
0000D1FB
FC123D40
182D0F11
E0100F11
2EF4FDE9
07290DCE
F8152FFC
E0FD15EA
F922161C
F8291F06
FF040601
0E1A16F2
08EF18E6
2D0410F0
042407FE
F3F921FF
1C05EA14
0C2CFDEB
FE1B0413
F1170DF7
31FDE0EA
2EF0EBD1
18E2FEE4
E2EE0BE4
2700F4FD
1E0E09FD
09192119
E301130E
F029F41F
2AFEEF17
040D1CF7
E9FB06EC
190E0DF7
141FFA13
10110506
F5EE1900
FDFDEEFF
05D8E60B
FCDFEDEF
2329EED2
FEF3F506
F6CE0B00
1FE908F0
0C18ED00
F9151505
08E31D0E
F6ED1EEC
12D1F810
161B1019
CE07ECF1
E6D9F8F0
DA00FAEF
E310ED08
0026170B
0EEE200C
2EFC102D
1DFF2020
D7FD14F7
F2FB260C
D8E6FE0B
E8FD11E8
18F3FAFA
F3161BEC
320EE80B
FAFB1FF7
F00BF0FA
F4190314
4000E3EF
08E4E61A
1608FF27
ECFDDBE4
06FC13FC
E4EEEFE6
ECECFCF3
01091AF9
23EEE8FF
EE08F00D
DEE3EFF7
F10C1C03
381FEA03
F3180110
FDEEF226
0F00F70C
1E191106
2D0EFC08
1614FB20
2520FB33
201D0631
D9F9F8E7
F0F7F110
13FFE4DE
3AF8EC04
0D271012
14041C0D
0CF41902
1BFEFEED
F418FDCC
E016F0EB
0BFAFBEE
FCEFF802
3B0B1BF7
0DFCE7EA
1512EBF8
FB1912E7
14FF01F8
021B0A06
11FF01F0
EC0C3015
13050617
F50EFB09
0424EC08
0016F205
F509101A
FCE313E8
01EBDE08
01E9ECEE
DFFCFBF5
17FE0710
F420DCE9
2A3DFBE9
DDF20CEF
13000900
F20EE6D5
F7EEECFF
11FA17E9
10F8FEEC
14F9E9F9
10FC2917
E3E6E0E4
1B1ACAEC
F02D0A19
FEFBF113
DE07F513
E5FF07F4
FAEBF60D
F700FD1D
FD0205EE
DA1507EF
0BE61A00
141415FC
FDF107FA
010CE601
FBE713F2
062507FB
D4FEFD02
03131A1D
040727E9
0FFB35FE
051D311C
230C0218
16D8F616
30FD11F0
080BF405
20031FF1
180517EC
142BF40B
F202EBF3
D1F2061C
14121606
2A2C11F3
F006E616
EC22110B
0418FAF8
F6E82303
0405F914
FEEA06F6
0FEC0CF7
0CF815F1
0AF4E7F9
12FB0E03
0509F70E
E9EE04E6
08080EFB
0A0BF80B
03F9E50A
FCFEE5ED
EAF00E14
0BDFFDF8
0214E60B
1CF6E1F9
E700F10B
0EF4FD08
E6FEE2E7
1409E3EB
F10BEF05
FCFFE9FD
0EF40007
EDF00FEA
07F0E6E5
09010606
E9F2E1F4
F4E3E8F4
080CF0F0
DEE8E601
E7F3F8F8
000F08E0
ED0FEE0E
F802E207
E5F50F02
FDFAF008
E6F607F7
E6ED05EC
E2F2FFEE
F4EF020A
0BFA0703
F405FB11
0CFAE9EE
10090CF6
DE0FE4E8
EBF4F5F7
0EF302F6
E5FBE4FD
EFFAF3F0
0BE8F30E
0A09ECF3
0DE1DFE9
0CFF09FD
FDF8F405
EDFF0AFD
01DFDFE9
F207E7EE
02F6E1EB
0DEE070C
0DF5FFE7
F7F5FB03
FE08EFE5
100E0BE9
F9ED00ED
F001242C
06FF1626
2F01FCF8
12FB21D4
1B210A0B
FAE9DF13
0D0CF3F9
F8161800
23FCF401
021702F0
2C130A37
1C0A070C
FD010811
DE100238
0008DD2D
15DEF411
FFE20C0F
F8034129
E8070E34
0013D1A7
0410F018
F1050D0F
FDDF0828
FBFCDA1A
121E08ED
F3ED1E27
19E70602
1316FA09
F1FFE2F7
14ED14E3
EC2D0FC1
EB364B09
0E05FEF5
13F9F201
36090606
2D1408F6
0CED0103
08DD0FEC
0AF21EFF
1DF40A3E
191A09FC
11E5F111
31E3DDE2
1700F516
C304EE0B
E9ED10E1
25D1FCDC
04F21FFB
EAFC13FC
08FAF325
17E8F7E2
38F0F1EC
F1090102
1F031DE7
3327FBDA
1C13FCF5
001CF3FF
FA00E9EE
0314163B
4025E312
F117140F
EBF4140E
12101A00
E81126F1
CEE5C7F3
0AE2CBE4
11EC1F10
0326FB2E
080ADC01
E314082D
2AF8041F
3800EC21
F5E7F1EE
FBFBFB0F
E61C1408
FDF2F604
06262605
FA08EA0B
1608ED06
2802101B
FDF50FD8
F0190816
2414F211
FB02F901
DCED0FFB
DD0FD41C
EE07E71A
062D111F
FCF8D7E5
09F0F9F6
1202250F
080DF209
01FE2026
FAFC493B
11FA3511
0DDDF3D4
09EFF7DF
10F5F8F7
161B272B
150F062F
F9E701F8
15D8FA11
15FF0607
11130709
F6E2DBB1
0DF3FE26
F901FB1F
FC0A1DF8
2F0600AE
FDF0F7D9
F612060D
F1EFF3FA
FCF8E2F5
1E0DFDC1
FD111819
D90F1F12
0B0BDDF7
FBFB06FC
1CF3261F
EFECFA01
3A351D07
17FF12FD
E1F6C7F2
D4DC01F3
1EF2FD1C
25F4EAEE
FF13020E
0D09060E
F70CE5E1
152FE5ED
2D12FB02
E8E51B0C
0A0C19EC
F3E70710
04EEEA15
1110262F
F0F50111
DB0CE1F7
F1F7DAEC
0300180B
EBFAF205
F6EA19E9
FEF9E9EF
EFF90AF4
0A0B090B
F1DD0AF9
EEF7D705
262B2D22
BDCCFDEE
E8DEFCFB
0C22E7FE
E31705EE
0D09FBE6
F4070AFB
07F1E40A
0EFB022A
26F80BEA
FE00E00B
CC18E60D
E005EE00
2FF7F5F3
150B1F0B
E4EAF10A
14010C32
100A200B
E0F2F5E7
F2EDD7E4
EEFFFCE9
242111F6
F1FF0504
DEE2F11A
E0272934
FAF6F402
1BEB050B
FDE10DF7
131C1002
F50A3206
05F107E0
0DECF50B
03252123
DBF3CFD5
FBDB1FEB
0DED0C33
E7FE1E2F
F7ED23F9
DBCF0814
FEE4F5E5
FD0116D6
1FFEF7F9
F9FD1315
04F2F515
F4F6D8F0
FCE8EBDE
D1EBFDE9
D91E2D0B
DB2B11F6
F904F600
D00C3408
E5D503F8
1706F324
EBEF3003
231CFC05
EE0E20EF
0B23F2DD
1B211704
E0072DD3
D40C07FA
1506EEF9
F1F3F1EE
D50AC1E0
EAFD2105
10FF3601
1224EFE0
FD110CD4
01F512DB
2610E6F9
FFEAF211
E8180BFE
E01916FE
F303E80C
0D1710DD
FC090F13
2D13FC20
1DEFF21A
15EE170B
F5E407FE
E1FE1D1E
D9ED1C14
E81FFE1D
0511E50B
0AF0210F
D7D5ECFE
01EA0ADC
0F262808
D1F71822
E50F07F3
0A19F6FD
FCFFFDF1
D8E90F01
D303220D
E0EBD702
0502F4E4
160E020D
D60A111D
1D211AE0
F51606F0
E2FD0B2C
D0D1061A
FCE8F4EA
FD16ED10
FDE920FF
E90702EE
131019F6
E5F3140C
F20A0BF9
DBE3F8FC
13FC0B06
D8D5FF0D
19FD2228
122F18DE
F6FEEBF1
131B0315
131F0CE9
EEF91E10
231C1200
120A030A
091816FA
390725F8
2C2C1019
10061619
D9C90D08
1203F70D
D5E7E60B
1415F034
F4EF0333
0F0F1DE2
2F2508F4
0E0814FC
EFFD03F9
2C001200
06FDF713
051B0A12
0E1E0515
2003050D
EF0FFE02
FE10F1E4
22110BCF
0F271717
06F8F91A
E705DD02
2B0D0709
FFF0ECF1
F011EFEF
03EBE8F6
FE27300A
2CF2232D
DFF1F008
02040C0E
15150F07
0525F215
EA000A1B
03230928
08071006
17ED22EF
B3E7D816
FBD6FD2D
31E20224
F2E504E4
E3EAE415
282D2816
1B311D13
3C04EE04
0CFB01F6
2317FF21
1609083C
011F12FC
231EE9F2
FBFCE7EB
F1071EF8
0A0F091C
3FFA0B06
170E2003
E204E9E6
FD04FC0F
EC0E0A21
E8EEF2DA
0B02F4E5
1601ECF8
F3130228
02FDE4FE
04F5D9E3
E60000E9
0F010F03
3209FD16
1A0DE1F7
E400E8D8
00150D36
F5F9E3CD
01FCC4C8
2B2A1A33
0DF20720
F7FE17FB
2E35E2DB
F910ECF9
FEF3110D
0DF3F303
EBFCED01
06220027
10F10DEC
F4E0DAB8
E7F5E52A
F3EDEB01
E6011233
06F00E1C
05F2140D
1E130510
EE01FA14
D8FC0811
05EBE6E8
0405F7F8
E8192515
0D140510
E411FDE8
051E0906
BCEE1B24
100E192D
E4EC05F8
1E081406
FBE91722
01FC0E22
0A12240B
17171439
D1E70B23
EAE1EDFB
ECED28F7
171F262E
DFE11411
C70D0A18
23E602F3
1B22F70E
FDEA0809
FC03F702
EFE8EE03
2708F40B
ED04BCE3
1517F0D4
F70B1010
E3D91610
0D1EFAFF
FA1A3008
D0E30A1A
F2E90731
170A0415
09FBF819
0A22F9EF
E325F715
F301FE0D
F4F604F0
F40BF8FE
0B10091D
05DCE0C5
F7EFE105
08080204
EF160917
E210F7D2
07F1F217
FF0CFC23
000A1614
2512E8F4
0C1614EC
E7041816
02F00218
2E0BF7D7
1C054816
0A15193D
E4F1312C
1CFFFBDB
F8F618D8
07DDF809
E6F11A2C
0B2A0EFF
13121017
F1E6E71C
D7FAEB11
14FCF7CE
041B1912
EF031124
E50BF421
3F1ADEF0
02100FBD
F9FAEE05
E902F80F
E5D3FFE2
12F3C9D1
19F911F0
1224F713
270812DD
FFE3F3F4
01091A14
F203FB0A
011B1DE6
EEEDFD28
E619D904
F61DFCF0
0F0B10FB
25080DE4
EDEB0608
0EF8190F
251EDEF5
F4F208E7
F0061412
0D1D13F9
0CEBE9E3
CAFE16F4
FCEDF91C
2DF819E8
EF09200F
1B0AF414
EE07071C
00F0071A
FC10EFE7
13F21607
E9E41CFC
31EEFA20
F5FB0CF1
EC100AF6
C6E92114
24ECD2CC
2BEAE5DE
0A111405
D6E7000F
0EDCD713
03020011
F9ECFC14
06072600
F7FF0801
120313DC
010EFEFE
0914FAF4
22160E0C
E7E60CDB
EB08EEE8
0BF729FB
E7E80F04
E0100A09
010D02F8
E5022522
EBD9150E
FE0710D7
0012F509
D71EF106
030DFF0D
DE18150A
181EFF18
04E7120C
08020910
E6F6DC1E
FEFB01F2
34EFE407
E204FDF0
1F2517F6
EA1A02FF
070004F6
FFEF0803
C9071003
1B13E50E
2C17201D
FCDCFF04
E4141F03
020BFBDA
F8F20E1A
FEFB2524
F6F40028
DEDE213C
E7EC1815
04F2F6FF
DBFAFDF8
0A08FD26
0EE313FD
14140208
1506FF06
F73517F9
DBEF19FF
07F6100C
3D250215
1329FB12
F7111C01
0B262E04
0FDFF9E6
0EDFF606
10FF0606
ECE6E5DA
1D0A1011
FE2603FE
DB001F0F
02F60A1E
E5F1F10E
15EE191E
1A1A0426
00E6EDF5
1E283CF1
2BFC2E1D
08102407
0C271800
07DAEFE4
E1D71AEE
1F132301
210404D6
F4001D0B
0BE2FD00
F61A0726
FE0EFC10
DDD1DB16
11ED1B0C
FE0AFD0F
02F6F2E5
01F5E2E0
F0F6FCC0
070FF306
E80CC6DB
81D3AEE6
E2F2E7C3
2524FBFE
F115FFE1
E0D0F111
F2E8110C
FBFB0E1F
331604F6
33E8081F
340CF5F1
1808F112
0BF11711
12E2F71C
16F0DA13
09DE273A
030C032D
CFF1CE17
D1E1EC02
1404062D
E7DFFC1E
EAF0F116
F91C0E00
F31002FA
00D8D3D0
0104E0F2
0821091A
E8FD15F1
03E106EF
FE0B0226
ED0B0525
230EFB0A
0D0D29F1
32F70EFD
1C1DFEDC
F61110F1
DDEAF813
23302526
EB19E60F
12F5DE03
2A0B1BFA
0E05E5FC
0E1D190F
F312F7FE
08F0DFE7
1709151A
1D18331E
27FF1335
DFCD08CF
26FCFC1B
1B2CFBED
09F8112C
020CF2F8
2014F609
02141B18
F70E02E9
EE21DEE0
F2F6F4EF
1F080902
FCFEF413
E700E8DD
2D080AFF
EF1727E7
DC341921
F9F2F219
050DE5F8
010B19DF
F62E2011
F4EEFE03
0A09E507
1CF6D90B
F0FF0311
E0F9F515
3C2BE511
240C1B0A
F0EF08E6
0813FD17
38F7E806
12F0E907
191A0601
1E1D0AF9
FFFFFFF0
FFFFFFEF
FFFFFFF0
0000000D
00000011
FFFFFFFE
FFFFFFFA
0000000A
0000001E
0000001E
00000000
0000000C
0000000B
FFFFFFEE
0000001B
FFFFFFE8
00000008
00000009
FFFFFFF8
FFFFFFFE
FFFFFFF5
0000002D
00000014
FFFFFFF2
00000009
FFFFFFFA
00000016
00000000
0000001D
FFFFFFEB
FFFFFFFC
00000008
00000009
FFFFFFF6
FFFFFFFF
0000001A
FFFFFFFA
00000006
FFFFFFFE
FFFFFFEC
0000000B
00000006
00000006
00000018
00000010
FFFFFFFF
00000000
FFFFFFF6
FFFFFFEF
FFFFFFFB
00000007
00000006
00000005
FFFFFFFC
FFFFFFFD
0000002A
0000001A
00000015
00000002
00000009
0000000C
0000000C
FFFFFFF7
00000001
FFFFFFEF
00000026
0000001F
FFFFFFFF
0000000C
00000012
FFFFFFFA
00000007
FFFFFFE4
FFFFFFF9
FFFFFFF8
FFFFFFE0
FFFFFFF0
FFFFFFE7
00000019
00000022
00000007
FFFFFFEC
00000006
0000000D
00000007
FFFFFFFE
FFFFFFE9
FFFFFFE1
FFFFFFF3
FFFFFFF8
FFFFFFF3
FFFFFFF5
00000008
00000023
FFFFFFFA
FFFFFFEC
00000018
00000013
FFFFFFFE
00000007
FFFFFFF0
FFFFFFF6
FFFFFFF9
FFFFFFEA
FFFFFFFE
00000031
0000001F
0000001E
FFFFFFE8
FFFFFFE2
0000001E
00000010
FFFFFFFB
FFFFFFFD
00000003
00000002
0000000E
00000008
FFFFFFFB
00000001
1632FF1D
1FF8CB2C
16219416
120CE4EE
BE3D30FF
0E373CD2
D3D518EE
09DF2752
E4240548
031F0E1C
ECD740F4
E90E5C4D
5B30EEE1
FF580F1A
04E7E31D
C8E3E9F4
1CF42D4C
2DE82827
FA022306
3ED5F5DC
4512CCFB
08411511
23D829F8
1C0DD4DB
181FC81C
E7F4AB29
0E2826D9
0D10E5FB
F71C4025
E9CB2BEE
DCC924ED
1FEE15D7
F40DEAE8
F8C8FC16
1B07F715
170824FF
CCD3E027
0E1D061C
FAEADFD7
D0F4F512
17F6191D
E30C13E4
1BCDFDF4
170BF010
EDF022D3
E0F0FBD9
DD1FCAFD
EFEA1CF8
11F4C50D
E1F10EEB
D802141B
F9122910
1906DFEC
FFE5F5FC
CA0FCD12
DD12DDF1
E515FE14
0CF810C4
CDCCCD00
CE1BD708
EBC0F4DC
19FEF503
F7151AEB
DA0D12EF
EFCBC208
F0FC1AD9
12F5FFE4
E2EACBEB
D4F10213
1812EFF1
C7210620
C1E5020D
FAEE18F9
091A1FF6
F8C8EF13
DD24DEFB
1DCB181A
ECE70DFD
0FE80003
E1C91BEE
E828E615
F7EACDD7
19C30AED
EAE5F8C0
18EC0AE3
2A0FBDE0
D5CD2401
0BC3DCCF
0807FFE5
D9EAD2DD
2BCC0919
1FF53E49
291D2809
D8D1321B
460EEFD6
2016F213
1146F03B
202F1627
1721E6D9
17E6DAF1
E322D818
E026EA32
1FC4EEC4
14CB1D0F
2CFF255E
04D9F5D6
1D30FAEA
2E130AED
311D18EC
F8E2E4D6
D4FD2500
DCE931CD
E1E0CCEC
E71FDA1D
00E5E000
18F43FF8
F9042C05
F20EECFD
1FD3EDE1
E4EFBFC9
16D8EC2E
03D2D8CE
CC03EAED
0D00FFD8
0511F309
D7C6CBF6
F6D21F21
0EF2D31A
EC1FDE0E
15F802F9
DE1B0AEA
D1E90609
F3CEE5CC
ED15F524
1D16EABC
D0F10C05
E814FEFB
1117F4E6
F1030BF7
E01FF2F2
E6081EDA
D7070408
35F4E915
15E6D20F
1C15CCD0
05181227
FDE9D716
E3D2DC15
D2FDD8C9
D5DF190B
A81E03E9
FE0E16D5
281EF62F
FDF635F5
DD230B1C
3DE71AE3
29E6EDCF
C839D90F
20162A03
E20A27F2
D9FBF102
D512C3DC
D72B1D1E
1E1BFAE2
E0DFF7ED
D9D4D926
D7141900
28291CE5
16D8E3FD
32E11ADD
D5CE0520
FC17091D
E244DFE6
E9120B37
0E163034
1EE347E1
1F1BF1DB
E8F6271C
0CDB1111
EA062525
29F8EF26
F32F1241
E70163F9
F8121C00
DB050EFA
C51F0CEB
C501F31A
31272226
D910FAEC
DEF00AFC
14F11835
14F3D41B
0D051AC1
2B17FE02
E810FD05
13CF1633
05CADB1A
DFCAB509
3602F5D4
D725EC1A
1F21E80B
10280105
5CBCDC3D
E4E8D1F1
23EC07FF
DAF74E2F
BEDE3610
DC19D61B
0CCEF8F4
0DE7DF34
26263C2A
27C603CE
37E3B6E6
F01415EB
EAEDDCF2
570CD31C
47381BCB
CDD7E630
F218E9DD
34E2E93B
BB333131
BAD5F20D
0305FBBF
09D8091C
E0D721FA
E415F7F8
FB1329FE
0D2B3920
F8102228
39F40AF3
B8E504F3
20EEE308
940610E1
0FE9B7DE
28E2E7E1
2EF2C415
0631F0FF
09D7D701
35331EF0
091A02FF
AECFFFEA
F600E3E4
0601B22C
361E06E0
1ADE3434
2CE9ECF3
F10CDEDD
1BD81515
48000239
F6FF2CE0
C0D3E90F
F62325E9
DB460242
3C4CE72E
F535FC12
1B2B18FE
2F1A14E5
CDF31734
FE11DA0A
3ADAE2FE
32EEC329
23D1E8D9
2AE2E8FD
16064F12
0CD31231
E3D0DEEE
EA28100A
15E61D0C
15DE1EF8
DB391A26
01C81AE8
1921071D
05E1E1EA
C8CB3D13
E31C2728
24E0ECEE
2E0F27CA
124A16E3
E1DED5F0
F012E6E1
2AC62C23
DCE620D3
ED120700
D51634EC
FE20D845
D512F1DF
EFFD1336
10F70A19
E1FC19ED
48EF2BDF
22EC2710
D9D40DF5
6D330E0C
DA04CD32
32FAF10E
F5312BF5
460711DD
024313F8
E737ECD1
C6E32DDA
0C370817
1F08052D
37EF081D
0E19E5D1
18E9D4EA
B8F62CE9
CAD4FFE0
F9C8E1BA
1BE12021
361E26F9
571916F7
39E315D4
FDF4D2EB
F2EAEC01
D51E27F7
E3EF171F
0FEE2C23
25D7FD09
15C141F6
2EEF2DE8
0618DE03
DEE42CF2
E6FAA0EA
15172C12
E7DEE553
28D4DF25
232F2A26
270BEDFF
D22516E3
F44A19E1
23230FE7
F3FF01E9
1DDE1EF7
E9D2D1D5
E5F805F5
012217DF
F011F2EA
E3D4CE1E
DDD1F408
0D0AF00C
0FF9F1D7
E917ECE4
00FE13D6
D1E3DDF8
2D00F009
02D7DDD1
FCD2E11E
DEEFDBF7
02E71DFB
FFFC2628
E6E2F312
F8D7DAD9
2DD105D8
EBE0E6F8
1B0AFA25
1DEFEEFB
E8E4F61E
D71327E3
CB0EEEF4
D3ECF3EA
E20318D8
D5CF1504
E009011C
0103D8EE
0B1721F5
CDF9E5FC
1B11E91F
F30112FF
FAD1E9E2
0C11D421
E3FA1CF2
10DFF0EE
D6F01DF8
FBE2D010
F0F0F9EF
16EA150E
E0DBF2FA
140DF4D0
23001CE2
15CADD14
D901E3D8
F7E3F121
01F80DF0
EDE80F1F
EFF9FADA
232ADD06
F4020AD1
EDFBE5CF
CBDB1CEB
DDDDFCD4
D8E7020B
22E0E302
2BF6A42E
3700EC0D
1CEA3235
1D25E823
18A90DE4
F3D325F9
C7081F34
1EF2D4FB
BC160E02
DED4263E
24253A19
0642031E
DFEC29EE
0119EAA8
D6F726E0
E63AE100
EE3F1E10
07EAE5FA
D4F1ACFC
F4D7CF0C
EFE3071E
032A1EEC
F01803D9
08F792E2
DFEA1E39
001DE82C
2F0C521C
EF0DF321
BF103CDB
14FAF6C9
28FF1B20
FCFB013B
3C12FDD4
09174305
2509142D
02FB2536
D311F7EE
EBD1FD1C
B34A1242
0929DD13
3CEF14DB
121C3730
151CF4DB
0228E3C1
E130F51E
FCE5F23A
E16C4A19
EAC2DEF4
FD31C7E6
D82D2900
FFA44CFC
E041CFE1
213EEE31
2DF1D623
EE13D919
29FA2701
01E13EF5
42130F2C
DB263BD3
F0ECC3EE
F7FAEE1B
E6E6ECF1
11121105
F4290DEF
1AC50D0C
F70522EB
E725F120
FCF1F900
DE3315F6
2CD92320
092C031A
0203F1EB
08FAF8EF
4AD810C1
15BA3124
0007FE39
F134FDFE
D1D0FD08
EECF15E5
DB0ECB12
E432460A
E12803FA
262B2DC7
FAF8D6E4
F409CD06
322BE3F6
EC3B2ADB
2FEAFA43
C50425E8
0DE7E023
FFDFF30D
0701CD24
191BEEF2
F921EF08
F3B101FC
FE1B3AFD
B5D9FDE3
EDF706B4
00EEF302
2CC92E34
BC120126
CB1D1101
00F6250F
380A12A7
20B8DDE4
223FE7FE
1E22D2EA
012C1F24
1108D1DC
25F81431
BF2B3423
EF38DEEE
000222E7
2CEBF1E1
11F7C534
F617FE41
31291A3C
EEDC2233
4023C6FD
F21DF9EE
2206C6CF
DA32FE30
26D3C81C
2217E10C
1D5EF70E
FAFAD922
1B06F202
18EE284E
CD1B0AF8
F031C909
3107E818
2FDB1FF1
0BD9DED3
41F4050A
0B352BFF
123318F2
0D301E25
05C2E5E6
FB360D16
D2D3F6CE
1B2235D5
0AF31F04
DA1311ED
E81645CB
EBD60D25
FCD0EDEF
F1F8FD12
1D08F62D
AFD5F32D
1A090DBD
272E1CE5
FE0CF032
DEEC130B
3B31C5F9
3622D91F
00FD210B
14270F16
08FC2312
FEF4F526
0110C6F2
CBF8ED2D
1BFD311C
E314E326
EF0FD2E1
E234DBDE
40360F09
281AE4E8
02F9EDD6
DC0212F0
E7FF1BF8
CE463BDD
17291F11
0C0FF817
DEF42A23
0A041CED
D4EB1BF5
32D9EDEA
25B9E20A
222500E6
1AEE1128
F6F000E1
F10EF819
D2DCF70D
1DD0E10B
E3EEF709
1721E111
0CC7F3DE
E400FE13
FD05D9EA
F603FBDB
EFC802DC
1503FAEF
F2D11A17
CBEFE11C
F90CE2C4
C6DE0BFB
2B0BDAF5
FACBF6E4
17E2FEED
E12E16EC
071D0B1C
09C7EBEF
E4D3D3E0
00EF02E7
F2EA0ADE
0ADC0F1E
1DD2FC00
CFDCD411
A60CD8FA
DDFF14E7
3B0DF500
0F432133
F11DFF00
E9122C14
F2FFFC27
1B1FF82B
EDE0E7DD
0703DF05
C1361830
0E13D002
E8FE1E26
46192E05
D8E800ED
0FF42B06
D74DDE06
EE0CFC23
E8221325
2306EB06
E835DC11
CAE4E21B
D2BDD6F5
0F0EFAE5
210419FA
E6D809CC
D60FE929
081CF1EF
0B08FA16
1D1BD327
E32532DA
10C50FC8
D3EFC543
01041719
E742FC34
FB140824
E4B6ECB7
030D524C
F71B2816
0EFAE9D8
EAE50F0D
CA38421F
2CF72E2A
FD59D50B
06FD33E8
C3D7DBFD
1EDDF7FD
1AF3E012
07F91C0F
01C407EB
28C0ECEC
FF49AB17
D3F75608
E1E1F0BE
15011405
18F20124
D73A171D
EE04E943
0D1D2D0E
15D9EA40
CFEC10FB
D6F820E9
D8EE21FE
15BD06DF
D925FBC8
E803371C
EDEC0AF7
DE123617
10E912C7
D4181AE6
F0E8EB1A
1B002FFA
12E3F0B3
DFF016DD
0EE1E30C
E4040FFF
F0D3250A
05E001CF
E92E18E8
0EF1D21F
44FC050C
D6301D13
FBDFF5DC
EEF40123
04E5CC06
12E227D9
EFD911FF
BAD4E803
F6EDFA0E
D6C10F0F
EDC7FE26
05F0DA15
FBCCD9E1
1CE713B2
D40835E4
CE0539ED
F425D223
F7DCF1E4
D9EB28EE
2620E617
34DC0818
EFD7010E
E933D0E0
1EE622FE
D93D0B28
ADDE0C21
D4FC1840
311C32DD
EE9D29E6
243D17DE
133DCCE8
EDEADA36
5FDFE2FA
14D30B10
DFF0E634
E70AE236
20280AE0
2A1AD1F8
D52831FD
EFFD24F6
9CC1FE06
2621F427
181D1503
1A2FFD1F
200F2826
2AEDDB00
39F9EBCA
D83C18F5
35FCF508
FFF70619
DC2D0E25
FDDAD303
DB16052E
36F52913
EE1C1711
D7130BEA
D927CFE0
D2EE2205
FFDFEDF1
43DA03E3
FC0DD116
F205EE0B
5FF0BB15
0BFB312C
18EFEB01
2FE803EE
21E31ED8
02F1F5E8
0F24EA05
EC5B342D
7D271A0F
2429383C
D8E35BFD
F7FBE7F7
67EF2706
EEDA30E8
1F71DB09
FC1BF3DB
10DE092C
1E101630
F70713F5
F0D82C33
1208ECC6
CC0EEF24
F7101639
311025C0
2824FDFD
20E20B02
EE453523
E7292305
CC2C130C
DED94AFF
06F3262E
25EF32FD
1A1031DC
2D0EEF17
47E930EA
10E1EFF6
30DE162D
01BFF1E6
9AD81F08
F6D2DBC2
3026C439
33E12BEB
07FF0802
352AEF23
E5C1EAEE
FE1FF3F6
1D091532
10FEDEB7
E90C25E5
C302F4E6
C608002E
08350308
E23506C3
FF22FB2D
20451402
2C233A21
0EE8F8F2
27CA242D
04272824
24DED70C
F338DFD9
E5EA1411
F61B14FE
00E5D311
083810FA
D40DD323
1838E3BD
134BE611
E4F5F115
01E9EBF6
030608FD
EBE9CD18
09FEEBD9
E5E8F7F5
00181725
F6DDFC07
E11EE213
022906D9
140EE7E4
DCE3171F
F119F4EE
DA07D1DE
13E5FE08
0006F81E
2817D8E3
D5F0F0CA
03FC0AFC
D4CCE0DE
21DAE2D9
E4D4231E
1B151CDB
E9E1D61E
FA1F2219
EA2B07EC
E116FAE9
18060BCF
21CDE8EF
D0E6E0D0
7C10BBED
0FF6184E
0410F416
EE2E42E7
EE0B1920
3D1D1E23
CB1E1FEF
D6020106
1CDDF4EC
F022FD26
FDF7CFB2
F8ECE7DA
37F4F72B
2BCB0FED
0C2ADE20
1E1ADD27
171808D8
09C311CC
DBDBCDF2
041815F6
F2D05AD3
260F2536
440CC729
20D1E613
D0BFF724
09FE2A17
05E43EEC
021F0337
38EAFE00
C1D407E3
2302E305
070009F8
02EAF600
E22411C0
FC0DD41A
14D3E408
1AFD29D5
FFECF3D7
01C01AFF
3BE9E214
0E0CF902
36B614D2
F806F01A
EEBBDD06
FC14254C
2FD9E1D4
11C523CC
0A2D4A05
FBF3E1F0
28F51CE6
BDECFF15
0FFF121E
F81F09C7
0FF90EEF
18D1D8CF
0C25F50D
13032B2D
3229D5F8
E6FDFDFD
1E0023F0
04091AFF
D8E41925
E615EAFC
35F4FDF4
45032D37
49F10117
301FE011
11F50DE6
16D22A19
C91CFD12
9D1CCE2A
E62AE2F1
EF21E0FE
F000EEE0
280B1F1C
340BD3E3
EE08E4C7
BA09D90B
0A1CDAF4
EEEFD30A
DFE2E7E7
DE14EE10
2E001A3A
D9222F11
F4D3DEDE
FCFB1013
C416D4FF
31ED33E3
41D9EC42
D63CF5F0
641209EB
00D0EA2F
FB1A0E02
EF0FD037
56F6282A
39171011
2259C732
08CEF9F1
1916D70D
0D171400
AF10FBEB
EA1AD9E6
1A1CDBEF
ECE2F4EA
F0CFF604
EEEEE7C3
E1122125
0B281AEF
121CFF20
26DEEB06
9AE4FD03
DDCD33D5
12E3240A
F50620DD
0EFBDE03
C918EBCB
0E22F8E9
FEF626E4
1AE6E6E3
2FF1240D
E7D4F6D7
FB14E9E7
0602B621
24EC01D8
30E0DC14
ED0DF2EC
E9F61FE1
F4D4C008
D2FCFFFE
212BFEF8
14EEEA3A
1BD322E2
08251436
EF1028ED
07E7DAEC
0EE5FFDE
24DB40E5
F7DA3127
C1EE181F
01F4E0EE
3020AEDE
1FC9B223
1100F7E2
14D5DAE9
20CCD1E4
E42BCD02
03132D36
2A30E0FC
FD2440CF
1E511E3C
F92618D1
0E12E206
3D0C41F2
F118D1C1
0BCBBFD9
EADD0906
FE073003
F6D4F1C7
DA0FE2DD
402EDDDE
28E7F41E
F4DCC9ED
160D0AF9
1CD51324
2D0E003C
1D24DFF0
03ECF5E9
43214003
30C0F8E8
1A60E8F6
C5FB36EE
00234009
F41CE4E9
DB4AE8FE
231FEAFD
38E70CF9
21FE1317
01130DCB
EA38E0C2
0E15EED5
BEFB2FEB
2CF12219
171F06E7
E1E029E1
44E7131F
0A1DE7F2
232FDAFD
0633E717
C80703F8
2B3219FD
0DEDF918
F0D9F504
AEE6080D
DADA0B08
EF34D9E3
21132208
0EB52F0E
0912F0FD
2BFFEF1A
F81F09F2
DB160D2B
001311EB
FB0F5103
E141E216
2EEB19F3
E3FD2603
EFECFE18
E9E7FFFB
1F3227DF
391B23DA
6024CF1E
1D0E1523
11000AFC
E80C0F27
0AEB12F0
29F6C0FF
FB3BD723
E344E832
F9DC0AD9
32EE213D
220F17D6
06E9DC18
F4BDC2F6
FEB60AFC
1513114E
120026EB
0214F615
080315EA
EBFD18E8
1230230F
E8F758DE
2D144FDD
5D18CBD2
DCED1D45
EACEC6E2
16115F01
30DEF6F7
DC13DE16
252508F1
281505BB
0C2117FD
D3D60FEC
312142CB
F938CDF6
6AF0C1E4
1C1DDF10
3D31FC10
0622C92A
191D0DD4
0312D910
0F50FD3D
2E20ACCF
E4DDEFD2
F7AD2926
FB151D09
0A2014E8
FBF100DE
382C1B21
0B27FCEF
3124E01A
A3155CE0
2123F6EF
DCD73BC1
D4FDEAEA
0D0BE217
FFEB3EE0
31E61A2F
04011506
D3ECDAAE
4AF7D607
D717CFEB
EE17EE00
20EEDB1F
D902CDD3
D1D909DD
F2E0D91A
DA152424
1E08F4CF
F3D10E07
EFF405C0
CBE8CEFD
ECDC20DB
ECEE06D4
D41501EE
0802F407
252919E3
FA17E214
11DD20F1
EEFF1405
E2DD16D3
0FF1F014
18D615FA
1BE1F9DE
17DEFD07
111F23D9
E9F10F0A
16D4DAEA
D213EEE0
FD1B02FE
121C0DD4
0B3DE613
EE2C040A
29333807
1E103D0A
E2E3CD1A
1DF1E8EB
06160F10
1E252303
47F7E9D7
FE19032D
180AFFDE
DA05CFFA
0BF914F0
18D1FDDC
2A2EEF10
1FEBFC0A
EA2305FB
DC2807F6
E7E31C09
0AE83029
0D145627
F52A3AD2
E61DFB0E
1AE41A45
26EEFCF0
EDC9621B
15F11FF8
FE242E13
0E01DC07
DE1BC8D0
2BCD0EFF
0C044A46
14ED5F16
12C63319
261A4CE6
FCEE08ED
404AED10
03122F0D
CA12F5E7
D12BF247
E3361107
EF3F1507
DBF8D7C8
EA0BF6F6
0C2AE4F8
1AEBE6DF
2F04F91C
2C0BD01A
E559141E
E7F9EA26
CC102CDC
0C113DF1
49ED492B
1C46F0C4
2AECDDE0
06096411
090D150F
F311D422
0EEEDD3B
CFFAE4EC
2114E0FD
E3424312
DFE75A03
DF03112E
2FD72CE3
F1FA2814
DDEDE4F2
062EEFB2
29F609FA
D9CCE8EA
1A2FF916
333CD9D3
0FE80100
12CE130E
F9041E12
160B0D29
F3E3C418
E918F20E
3A0515E3
C54023DE
F929ECFC
F5FC44F4
1602DB15
FD2A122B
10283FBF
E8E408E7
B719080D
4728E100
F2E3FD40
170BD323
B40800E9
F5132C1A
331F10E5
CFCD26F3
D20538DA
E12CD60E
30D6FDFC
DF41E314
1AE5F1FB
220522DB
FCEE1FEF
F5E0F51A
BD090519
2F32330C
1130191E
D0EA242F
2136E30A
0DEB0204
F6D4FAFC
EF1D2BDE
31E42008
27F32629
60DE0CEF
DF25C641
0AD3C727
F2F842E7
1127F4F1
DE35EE25
033715F5
D80FDEF6
540FD1FE
DD231427
10E94DE0
F5EDDD25
DA31FBE0
C20314D7
18F3FC47
25311D14
2A1BFB25
FFF7070D
58020FE6
01FF4A04
06D30AF6
E2F52A04
FA06D323
FAF6343A
2DDC1D2E
29CB1AD5
24C7F3E7
14190AF9
4C15F313
E1221D0D
49E6F438
02FDE9F8
E112E32B
D8FBEC0B
2F30061B
20070900
EDF7E5EE
08D11012
0CEBEBF2
DC124D02
E00B432B
EECBEE17
F2113C0E
0BE11803
4738FC0E
07DFD9E1
E03DE711
E5D91508
0BE70EE1
023706EA
2E2D052E
F2D32515
03182D07
4CF9D0DF
EF201FDE
D90C102D
331F0A04
18041CF8
C7D0EDFC
E3FF1DE9
194B4222
F71D06D6
06212DC5
D8E92513
F4F41D00
13F7FA22
0DF2FF17
D7EFF632
54C90014
E71A004A
0E040AE7
11EF4B39
06E41C1D
221ADFF4
0D3AF40A
EF3CFE0A
36CDEFD0
D61DDBFB
0FD8D121
20E0CDFF
D0D5181B
2EB934F3
E4E90E41
F1E9CFE2
F029D8C8
C3330B0D
EF10C6E7
2A200EEC
30264FDD
04E72211
4537D2EE
17EDFF3B
FB11EFFF
D8E56505
E8D53FF9
C720FE18
3301EA1F
F512D010
4132BB05
1DDECED8
1425CAE7
2550E2EB
D203171C
DC1A3211
0907FA13
1BB6C3F8
07FAE52F
E40AF12E
B4281034
0E27FFE5
572FE6F2
FAFB321D
08C80412
EB1506F1
EA613F30
EBFD31E3
D0D501DE
0F11032B
F938CAFF
130CCEE1
F9BAF8EF
DBEDEECA
DF0ECF17
FDEDB50D
12E905D7
FDF50ACF
AD152CA8
194A3D2F
23CE1C15
E4F21B00
15F914FB
0EBAF0E6
C81D3C1C
1401D317
EFEB0308
0D0C1409
2118FB10
D8E5DBC6
11E5F6EF
41F9EDF0
040A0740
DFE7E117
FC3913F7
FFEFE4DB
10FE03DD
FC17E1E7
EF15C1F8
FB1912E0
17B429D5
E612CEEB
EB282C31
FC07EAF8
E224421B
12DBFEF0
F51AD90D
1D291C28
2531F321
E2E505E9
E208D904
2E15F72C
2AF7D24B
DF441D15
C9F7F7F0
1EE44302
EFD1DE17
27E42FC8
462CF14C
D520F4E8
E8030CF6
2326F8EA
283C1E51
3F22DC31
1A2DF3D0
DAF8F11B
07F6F7F3
0ED5E534
D3E0D1E5
0BFB1C06
1EDBE0F6
1E2A00FF
3417E44E
2CEB4F29
181C3C18
331CC9F0
CC2F160A
2634252D
082E03F8
DBDC434F
6D290723
050F1F15
FE042D32
DA072130
962CE80A
160F4408
BEF11CF7
EFCCEE1F
29DCF634
CBF91119
40E3BAC9
3F271415
24142520
3BC8C50A
E2FDF40F
0502E62F
280F06D8
EBFACFD6
2009DD11
D416D6FC
1ADA5DF4
EC0EDDFD
B51B250D
E00C46D2
0A0E1AE9
E3104FF8
202BFA26
29240A1E
E2F2C933
1FCEDB11
E512F221
F1F8D3FA
F30E0ED6
02FF0FE9
E50EDEF3
080F1703
0916D82A
27DAE0DC
0E09D5EC
0EE818D6
1BDEDE1B
09EDD2E4
DE12E007
0B04D51A
D5E3D9DE
2111ECDF
EFEE0E1F
E2040D1C
260D1E06
EADB0127
11D50811
F3D3DFD7
15E7FCF1
EFF8E61D
E7F2E4E1
0C0EE201
E61DEAFF
E90912D8
22DEFF02
D5D7DFF9
5CD2F2E6
D53A0242
E6FD421C
21291E27
161BFBE7
1821CE0E
02FB0627
1FE4F816
53F720F8
2121F017
3ACD00D0
3200E809
2119CE24
D7E517D5
152FFB0A
471BFD12
1A1F0EFF
E0EF26E1
2C96E325
DC1DF7F4
F2CE19EA
FACCFDFF
2A4AD836
27F342F6
F2BD34F7
EFFA2EE0
3DD50B07
0C2EFDEF
14DCE617
DFF42CD4
E2F6E71B
07F025D2
FFF116D3
D7DD1CDE
E1D7F90F
E012F2DB
210C28D4
E1E9110F
0B05D706
E214DAED
DF12EAE5
1FE300E8
E223F71E
E013FDF0
13E1DEE5
20D526D2
0101F20B
F3E9E5CE
D70D1804
D0F304E5
DE030619
FA20F027
DDF6FE09
F8E4D9C7
1D03DA1F
D8E01CEA
D71124D4
DA0E04DF
0CDAEFEC
14E2F0E0
4146D805
E1EFB9F0
E608DB27
25051605
AD08F529
D02B2F08
E3A109D6
E2F5423A
47D21F14
07FCF8E0
4DD2F3EA
181D1339
01FC083A
EA3F1EF4
1325FDC4
C106DF33
EECCFFF2
F2D6EFFE
06A7E3F4
16392C27
2FCD07F0
1234CE3C
CE00C21B
0609270A
1F150DF5
C8F904DB
1C1E2938
2F17220C
170F31E9
2A181A44
BECE0CD8
D83CE119
03F507F1
F3A605DD
F23EE721
08FBC311
1827E81A
FF4035EE
BE20E61E
30231833
50F23215
34971C3C
BFE0B1F9
D1C7E8E6
F4EBED46
49F61ACA
2DA92401
3A22291A
EA15CD2C
26131A19
C4E8FB1F
08E775CC
015317F4
121F1CE0
FCCC2ACA
1F1BD203
13E4BEDA
2A0C212F
EB15F9FF
CBF707E7
7100EFF6
11DADA08
1FDDA9ED
DC3DB4F8
C01DB8CB
D50C1C25
4A65FF1F
08E8C136
C9161DB3
2516FC59
FB2E2D2A
05EDE1E4
04D6229D
2A093822
E7F8E117
EEDB07F6
304F3D13
0ECB09D6
E24E1A09
2FCCC912
B34B0D00
D4CF2A02
2CD63DB1
06E9E518
F2F7B1E7
38EFC7F5
3C1C3017
C607EBA0
94001FA5
0C3D2EFB
11E3F9D7
092C0BF0
1A14E7E9
0BB12E81
AB46F505
052AF910
F16CFBC0
22094B2B
13E8D111
3F052AED
24F216D2
DF904C1D
D416F5F5
C90201EA
FE10DF06
CB0E23E8
08C63EE6
143B28E1
FEDC0F0B
22F7010F
E7F829E5
F92BE109
D22D07E4
15F4BB0B
05BFF40F
0133F3D9
5AFAEC04
CA250523
36FF31F6
EBCE00D4
360C0006
E9D71903
2F1E39F1
2F2EC6F1
38FBDF36
C8EF3719
0B04FE06
13C7E7D4
D922131B
1027D2DD
1A2C1C3A
3AFC12DB
2831D6EC
E0FE0A33
EAE20318
4529DA1F
1E001DE9
E7E3F01E
FEEF32FD
0F390C0C
EE459CDC
F2DDE3F9
D2C4FB0E
F10C1A23
1301D931
FADFD5DD
182F33E2
3C0A2FCE
051E0B35
0EFD130F
F424DAD3
F1DCF4D4
E7EB24DD
22FFFFE6
D4E1E0E2
F5F1F7F8
D5D9FCE3
03150CF2
D4DF17DE
DEF4D525
EB2CEFE9
DF23E012
DED6F7E7
F6D4F01B
090D23F6
EC0C0A1C
F6F42C08
F002F117
FE11EDF3
1BDDFEF9
E0DB18D9
EEE4FD15
28ECE1D4
D5E4FE18
172CDA22
FBFCE11B
EEE61DE7
F5FBEEF4
E3F32D27
02E41A1C
4DE1F6DA
FD112B1B
DC255ED9
1FF21413
240334FB
182D43EB
DA3C103A
2A3B311A
ED12DEE4
25D7FFFE
2CF1DAF6
FBE3184D
0ED42CA4
29CCE517
DB040531
EB1BEAE5
F2D80F43
F709C925
F6FDF606
C72BCFFC
18F01306
281452EE
F7091701
1A14B6CE
3737E8F5
D11465EB
112A2A29
EE16F600
35DAD903
26C6D116
DF50C6ED
E31D1FDB
F3F0200D
0B05DEDB
F527D10D
BCF04EE2
C6D81A16
F0EE07F4
4B04D524
231CDFE0
6CD6C61F
3C0A0FEB
E6EEFE1A
0FF5E6D6
151FE0F0
18F8F35D
F8CC2200
DED60D2B
FBF0E007
F456EAFD
511E25E1
090AFCFD
052301FD
F71224E4
D83718EB
19DBF902
E2362C48
F6360522
D824FBDD
2BECEB33
01132E30
EFA5D8EB
03080834
0E06BF19
F702E02A
13EEDE1D
160700B3
E5DD2F1F
F11E1026
121005F8
D523DE10
35F73027
310A40FE
E732C407
F6EBEED1
4BE5C90D
03092200
E51AEADF
0C130F00
E2C5201E
18D61327
D6FFF325
BB2135D9
39215CDD
220941E4
0204A9F5
1527F9E6
34DEEE00
EDEF3DC5
371A061B
F19635DA
0F29EA05
1AFCAFD4
03BD45AA
BA2BEEEC
F83EF9D6
2933280B
E02D421A
FCE4E8EB
0FE80AD9
47AC42CA
17B3483E
BBF9D4F4
0D26261D
0831201F
D4FCF5E8
EF0E0B29
40143DD4
23AAEFFE
3F12440F
08E8E6D1
0839D53C
2B48DD04
E4F7AC04
0105FC39
113014FE
26EFF709
D229211E
2440E21E
D5C734F8
0336D5E2
18EB050F
FF200030
12E4F1F6
1E221F1D
FDEDD90F
E7CB1D06
F42024CD
023DDFE5
0D3518CF
FA211CE9
4C2E06C3
481EF51C
DCE2EAFF
EC0F2216
10EFEC2A
FCE820F5
CFD3F230
13E4EBFD
FF0E38DD
E61AF3F3
06EB31C2
19250513
39EF2511
022907FA
F33DAE20
17130AE6
1B3C2527
CD18ECCF
E1361319
F7DB120A
18D8D3D6
E32DFDDD
DC000AD4
00221BE9
DE261EDE
152B041E
ECCE0914
DF1C12D6
0F03FE21
DED814F7
F701EE02
07ECE6D9
F80E0405
F8CFF7D8
201616DE
07D4DDD8
ECF8FEDB
0CD4F317
E7E4EE26
D2FFD4E5
21F5DA0E
E31B1ADF
DBFDF123
F8DCF8FB
1908E2E8
D9DFD8D8
F6EDE8EA
EFFD18EE
E5DB0316
0A43EA00
E8E82904
12F5290C
122DE0E7
EE2A08DD
96DA0AF5
0CDB1AFB
E2F91DBE
CB0ADF2C
E612D70B
060620CD
35F9F725
54FBD412
FF0A1F05
0B0C14EE
30D0EFEC
03CCFE45
00F9FE13
EE1F29DB
0A430616
04FCD5E0
CB2B55D8
33CBE00A
EAD92BE4
D126E0EE
302DBB01
0A2A1800
30F7F422
BF0F29FD
FF180623
EA223209
0FE1C1DC
1A0FBE24
F5161117
35030325
5C23ECEF
FD47FBDA
EA1FEA26
1F04F21E
E00A1A27
D4263220
E623E001
1EFAEEF0
FB0B30F0
04181512
262BE5E4
FB540904
0E0B2720
D2DA0711
4106DBE2
BDFD1505
14D90CF7
D3FA23E1
FD03EDEE
E5E8C620
35EFFB1C
1812DBEB
0C1817E9
F8D8F206
0D0CF9DA
AAC4CF08
F23B35F0
EFF01209
DEBF4BC8
19C90EFF
3FE9B2D8
20B5E5E3
F916FAD3
45D7E7EE
1E000114
2EC3E102
09C9C3F2
C113DE19
E1FB1E09
0540052B
D7F0D614
284036E3
CBF80CEF
EAA9F1ED
28EF1723
23E835F7
0FF1E9EF
7A38A5EB
FBB5F3FF
C5D91701
EADFDC0A
0FC71ED2
E026F1FC
0701F1B5
F30725E0
360D35F8
1FDFF5CC
2207EAE6
12CB20EA
D70E2F32
4E13F606
47340BCE
1E2A1636
DBFDEB0A
0BFFF000
DFFA1EF8
C8031C2F
EB2DEA15
D903EBEF
DB16EC23
E91304BD
DF1A2902
3A00F1D5
341800E8
D7FB2FDC
A6E541E6
E8EEF615
21193AF1
2627D0A7
0B150436
181C2AF5
49DDF800
F5E1181B
1B1E30DD
09E1E2EA
F4F4EBF0
EB1720D7
E9F70AE7
D8EEF9CD
52D1FFFA
1FF721E3
30D91DFB
1E1BD01C
F91B31C5
220F251C
E824F34C
D6290015
F2022FF0
1EC044FE
30250DC9
EE08E50B
0BE624F2
1EF4190C
FD001207
F91610F1
F44AE6E7
E8C61EE2
10DB0BDA
E40824F1
2207F8F6
ED113DF7
D9040308
3037E61B
D315DDEA
EF2DDA1E
C5600D0D
2218100C
2FFB27EF
1F1FBF0E
35FECBF6
F6EC0920
2B950109
11C6C7AD
09F7F7E7
241EDCEB
1B31EAF5
3CE7B30C
02D12AE4
0EE522EA
FA13DBFA
05E3D21C
F9F804FC
36EAF00F
2812FEE1
DE47DCE4
F20C41EE
CCEB2438
EB02DCE2
1AE802FF
D8E5250E
E4E41F22
EB30D535
3C130112
0E2BEBCA
201ECE13
E7E40CE2
06FAEEC5
2A03EDDE
FEBB0DCF
41D31E26
481CE50B
26DF2DDA
FF3C25ED
C500EC19
2DF9E4E3
020814E7
FCEBBF05
AA081AD9
E6033CEF
EC151EDA
33F50C14
FBCFF1D0
304CF325
06FADF24
1209281A
C32018DF
D8162115
D94859E5
140BD011
2F0013CC
2BFF27F2
1624E336
2F281604
2B202315
3524D9F1
A614320D
0CD304D4
1EEDFD26
DDE91D24
50CFEC2C
C53BF72D
03D80627
022EE5DE
EF3533DC
340BEAF6
FB28351E
C41D1EE6
FAF837D1
1B2E332A
E818F41A
FDE6E7F7
E23F0921
07DE3505
052A4F00
3501FB1C
D23BD417
F808F6F9
1ADCEFF1
E2E0D042
EC0DFF12
F4DDEB04
F7F6D505
FDF7F4C3
FF2BEBF2
431CECFB
2924200E
1B1402E0
EBE0E430
F5FBE12C
D0441B05
E339520A
D21600F1
1AFB3F1A
F8291608
130D0E24
F7EB31DA
EAEA2057
221C0613
04551618
2F0F1BEC
F2D80EEB
DEEE1553
0613E405
CC1D0B18
EC31F4D2
3B1DD6E2
2B4D2413
D9B42727
0D16D9B2
1BFAF848
FD190C10
E73213F6
E100FEEC
CB121AD3
2DD4EFDF
48E8FB02
02CEFC1C
E2E5C626
EC033515
E0ED163B
4B2D04FD
F6391DF1
1709DC47
2018230D
1603DDF5
841AE00A
D92B2821
FC2C012A
17FCC82F
D0DCEAF5
F7F4EFFC
E236F7DC
F4F1EBDE
FE35210C
26FAEEF3
F70DDAF0
F6D9FE10
D4E7F4F7
F0D5F8E0
2A1334FC
201820F1
F3E8E9EA
23FC19EA
22EEF83B
0918F406
56CAD5E5
2524C341
2314DED8
E6FCC61E
0B05B20A
0DD137F8
DD0B0E00
F0F3FA2D
160DF2E7
EEE71C33
1F12F125
23C01E06
0A19F1D0
07A6EAD8
D9F7DF42
15FB12E4
1FEB3AF1
0E330CFD
262AD4DB
082ACF12
F83CFE1E
19D6EA33
C725FE14
D3FE1019
0CF430AD
210202FD
34202541
3BCCF81D
EB10EF52
F320CD37
C303EBDD
042822F2
101B3B28
FB15E9D5
00E9EC1C
FFFFDE24
07B9250B
1116C0B8
11F01810
E2F71A21
3A331023
15E0D2EE
030DE50F
2014D819
1B15E113
1BD1F434
2321EFE2
11D91637
04DB28D6
1FFC3AFC
0A0B19FB
0CDBF0EF
0315B3EF
0B134540
D8D91735
F915DC16
F501022A
FA12F71D
0F230D00
EB2A1EF8
0C1E1DFC
D3145301
EBFA4CE9
044BC8F8
38DABA08
2CF9FD08
30091524
D8FB08CF
2DE0060E
F806E820
E735FB1D
4203B4F7
59F4011A
F6D2EDF9
07FCD532
411EE41B
DB310EE9
10391EE7
E1102B0F
D31107E4
CE2922E2
15D6250F
EEE842D0
FAFB0AF4
26110DF6
07E8E020
10E8E3FA
31220ABE
24F218CB
3603ECEF
08DFEADA
D33CFB2F
F4E6D0EE
D41D16E5
00F83130
24E0101D
E8D1DB32
01F0D0F6
2CEF21E5
2B1514F4
1ADF06E8
3705F10A
FAE1D3F4
1C0218E6
DD351B2A
EA0EECFB
DB0C25F3
CB061906
E6C2FADF
20332718
F42BD7F3
2E18DD2C
72E0AD2E
DBD14507
02F6F2EA
16CBF728
FF1029D4
0EF41121
DA2924EE
0729F505
3F16FAE4
06DE2707
DFDBDB28
1B23F1B9
FEEFFAE9
0A0906F1
F910D624
F9E52927
F4D12104
1B281926
2929DAFD
3DCA001C
0DF4DEE7
15D80F0B
27E5020B
30101C23
F20BDF01
360519D3
35B0F72D
092EDFF2
E00166E7
D0F00A51
E6FFCEEC
23F11201
0E0A0CEA
0B1FEDE1
1D032442
1ED401FD
1F14F8EB
2B20E1D4
9ED00A09
E61BF0C5
31DE0B22
0F0329E9
DC060CC6
C3381E1E
F211F2F2
E10D09F8
E2080D1D
2BFB1D21
07160919
E4013649
DC1C2BD2
F11D3CEE
E0181DD2
AFFA1AD2
2A07060F
E913FEFB
2DE72CF1
E701DFF4
33EDFDE4
2A2FFDEE
EBC3F629
E9E5A5DE
17EAF0F1
EFF828EB
CB0FEE30
C52E1B31
F70DEBFF
05E712F3
25FDF818
F22103EE
34FCFAF5
D9E50016
E705E43E
FD1B0CF3
3206F6F6
EB1601F2
E3252818
1DFBDBD1
36F8F4CA
07D8DED2
EAF92023
DBE117FC
1615F3FA
F62B05F9
1C3EE40A
FAE822FB
1A2401FA
021F18E1
07CF5E25
E91111E9
153B06FA
ED3A23E2
2E062902
0DEDF41F
20F11130
D2EBDF28
39E8E71A
D5E500EA
0D0B2019
DAF92300
E90ADEFE
25FC3911
AA200B24
F617DDD4
F509FDE9
31140D3A
EDE502FF
E9FF1DCD
36F4D8D6
16E8070D
F92B2507
133E0201
2729020C
1D0219EE
10121FF8
F80FF115
1DEA13EC
F900EBDD
F9C5FB07
1906BF0C
F6211EFA
010E19E8
29EB22E1
1C03F4EB
072B2AF0
FE1C0E38
4036F218
D8E0FE07
C30AFDE3
09F0E0F7
0121122D
213D3105
F30A2413
F3F8E0EA
F915EC1D
E83B0BE8
FB27FADA
25DEF03D
D440023D
CF00DBDE
111B2416
3DF42B10
E7F7ECDC
130BEB38
F238E30C
F510E11F
F31FFD21
2BDD1818
07FE2222
0D24150D
DDDB11D5
E5E2271D
0F32EA1A
0EE3341B
D81914F5
FF21F307
E1D6E2FE
07FFE8DB
2618D81B
160B1A4E
28ED56F6
DF38F71F
0810DE1E
EFE6FDF9
121209F9
D1EB15F8
FE240E2A
D82FE601
FDD62AD1
F31CF925
4A19D1F3
F71A02DF
1825DD26
322FDA2D
28041522
DFF814FA
E90BF6D5
EE2636DA
120CF1E9
1DE95603
18DED232
21EE0636
DDF01207
110207DE
3DF128F9
071AE51B
D017E710
FDD8E401
0000003B
00000009
FFFFFFE6
00000001
FFFFFFED
0000000E
0000002E
00000025
00000008
00000019
0000002C
FFFFFFD1
FFFFFFCD
0000000C
0000001B
00000009
00000003
00000027
FFFFFFF5
FFFFFFF9
00000002
00000018
FFFFFFEC
00000024
00000011
00000009
FFFFFFFF
FFFFFFDA
0000003E
00000014
FFFFFFF8
00000015
00000040
00000004
00000003
FFFFFFF1
FFFFFFE4
FFFFFFF9
FFFFFFE0
00000014
0000000E
00000014
0000001C
FFFFFFF0
00000011
00000047
00000022
00000016
00000007
FFFFFFD4
0000000E
FFFFFFD0
0000003C
FFFFFFE8
0000000B
00000034
00000017
FFFFFFF1
00000020
0000001E
FFFFFFE8
FFFFFFF7
0000000B
00000017
FFFFFFFE
FFFFFFD9
00000004
0000002C
0000002B
FFFFFFD5
FFFFFFCC
0000002D
FFFFFFF1
00000029
00000026
00000019
00000015
0000000D
FFFFFFF2
FFFFFFF9
FFFFFFF1
00000017
FFFFFFFD
00000015
CB13E8D2
E23334FD
D6C6F923
D5DCF3FF
EF1121F6
BFD1062F
F019B536
B921F12D
31D8D0EC
272812D4
1BE9071C
3329F544
F323F128
AF05C518
2E0DEABB
D4E8D50C
B810EBC3
B8E5FD03
FD1226D9
1BEEFFE5
DF26142B
2DEAF619
2CE6CEE2
E20F0BBE
CBC20BFB
D8DF2821
2901CDD5
0AD03EC6
26F03827
3D12030E
0A12082F
D12BD1CE
B2D91830
DB2AFC07
4A472902
D721170B
ECBB359C
46B30900
D1E2BFE3
BA412501
BB3D1107
18C500E5
F9C0E0E4
FDEF19D7
DC173E0D
FECA0EEB
EDF4CFFC
